{
    "vocab": {
        "<UNK>": 0,
        "<PAD>": 1,
        "<SPACE>": 2,
        "m": 3,
        "o": 4,
        "i": 5,
        "-": 6,
        "ê": 7,
        "e": 8,
        ",": 9,
        " ": 10,
        "j": 11,
        "'": 12,
        "a": 13,
        "d": 14,
        "û": 15,
        "f": 16,
        "r": 17,
        "c": 18,
        "p": 19,
        "u": 20,
        "v": 21,
        "s": 22,
        "q": 23,
        "à": 24,
        "l": 25,
        "n": 26,
        ".": 27,
        "t": 28,
        "ç": 29,
        "é": 30,
        ":": 31,
        ")": 32,
        "!": 33,
        "7": 34,
        "0": 35,
        "x": 36,
        "b": 37,
        "g": 38,
        "\n": 39,
        "6": 40,
        "?": 41,
        "h": 42,
        "1": 43,
        "2": 44,
        "(": 45,
        "3": 46,
        "4": 47,
        "ô": 48,
        "z": 49,
        "y": 50,
        "\"": 51,
        "è": 52,
        "î": 53,
        "k": 54,
        "w": 55,
        "5": 56,
        ";": 57,
        "ù": 58,
        "â": 59,
        "9": 60,
        "ë": 61,
        "\t": 62,
        "8": 63,
        "œ": 64,
        "ï": 65,
        "es": 66,
        "en": 67,
        "on": 68,
        "qu": 69,
        "ai": 70,
        "de": 71,
        "ou": 72,
        "le": 73,
        "re": 74,
        "pa": 75,
        "an": 76,
        "un": 77,
        "est": 78,
        "que": 79,
        "et": 80,
        "la": 81,
        "er": 82,
        "ent": 83,
        "oi": 84,
        "au": 85,
        "pas": 86,
        "les": 87,
        "ais": 88,
        "ce": 89,
        "te": 90,
        "il": 91,
        "our": 92,
        "me": 93,
        "se": 94,
        "je": 95,
        "ur": 96,
        "is": 97,
        "des": 98,
        "ti": 99,
        "si": 100,
        "pr": 101,
        "ment": 102,
        "ne": 103,
        "pour": 104,
        "co": 105,
        "par": 106,
        "eu": 107,
        "ait": 108,
        "av": 109,
        "us": 110,
        "ch": 111,
        "tr": 112,
        "une": 113,
        "ont": 114,
        "qui": 115,
        "pl": 116,
        "ans": 117,
        "tu": 118,
        "or": 119,
        "mais": 120,
        "du": 121,
        "tou": 122,
        "ça": 123,
        "com": 124,
        "in": 125,
        "al": 126,
        "it": 127,
        "ar": 128,
        "dans": 129,
        "ien": 130,
        "sur": 131,
        "plus": 132,
        "ant": 133,
        "tre": 134,
        "peu": 135,
        "li": 136,
        "ét": 137,
        "as": 138,
        "tout": 139,
        "su": 140,
        "con": 141,
        "tion": 142,
        "dé": 143,
        "di": 144,
        "lle": 145,
        "aire": 146,
        "ec": 147,
        "ci": 148,
        "po": 149,
        "fait": 150,
        "mê": 151,
        "mp": 152,
        "oir": 153,
        "pro": 154,
        "vi": 155,
        "ouv": 156,
        "avec": 157,
        "même": 158,
        "ran": 159,
        "ma": 160,
        "ré": 161,
        "moi": 162,
        "bien": 163,
        "end": 164,
        "ès": 165,
        "ils": 166,
        "ér": 167,
        "sont": 168,
        "ens": 169,
        "comme": 170,
        "pu": 171,
        "ois": 172,
        "son": 173,
        "at": 174,
        "ain": 175,
        "faire": 176,
        "ac": 177,
        "mon": 178,
        "per": 179,
        "and": 180,
        "ssi": 181,
        "che": 182,
        "ser": 183,
        "être": 184,
        "non": 185,
        "ge": 186,
        "don": 187,
        "leur": 188,
        "ous": 189,
        "aut": 190,
        "ex": 191,
        "fran": 192,
        "mi": 193,
        "ff": 194,
        "oit": 195,
        "lu": 196,
        "ter": 197,
        "vr": 198,
        "elle": 199,
        "ra": 200,
        "ca": 201,
        "quand": 202,
        "cou": 203,
        "eux": 204,
        "mes": 205,
        "ble": 206,
        "ri": 207,
        "jour": 208,
        "os": 209,
        "peut": 210,
        "op": 211,
        "eau": 212,
        "suis": 213,
        "aussi": 214,
        "jus": 215,
        "ces": 216,
        "aux": 217,
        "mo": 218,
        "bon": 219,
        "coup": 220,
        "ion": 221,
        "sa": 222,
        "ux": 223,
        "ère": 224,
        "so": 225,
        "ut": 226,
        "vrai": 227,
        "était": 228,
        "dire": 229,
        "quel": 230,
        "eur": 231,
        "oui": 232,
        "dit": 233,
        "ta": 234,
        "donc": 235,
        "avoir": 236,
        "ni": 237,
        "ort": 238,
        "ors": 239,
        "cer": 240,
        "là": 241,
        "très": 242,
        "ité": 243,
        "juste": 244,
        "dis": 245,
        "cr": 246,
        "va": 247,
        "no": 248,
        "prend": 249,
        "ns": 250,
        "lement": 251,
        "tes": 252,
        "mer": 253,
        "oin": 254,
        "fin": 255,
        "gu": 256,
        "quoi": 257,
        "puis": 258,
        "gens": 259,
        "faut": 260,
        "mal": 261,
        "cet": 262,
        "té": 263,
        "été": 264,
        "res": 265,
        "moins": 266,
        "né": 267,
        "près": 268,
        "man": 269,
        "bl": 270,
        "sans": 271,
        "vo": 272,
        "ense": 273,
        "trouv": 274,
        "rien": 275,
        "entre": 276,
        "parce": 277,
        "mps": 278,
        "person": 279,
        "ul": 280,
        "dr": 281,
        "toi": 282,
        "ation": 283,
        "for": 284,
        "gr": 285,
        "france": 286,
        "cont": 287,
        "lui": 288,
        "temps": 289,
        "ah": 290,
        "tique": 291,
        "fa": 292,
        "parti": 293,
        "ème": 294,
        "ir": 295,
        "ys": 296,
        "tres": 297,
        "pré": 298,
        "alors": 299,
        "mé": 300,
        "cette": 301,
        "après": 302,
        "rais": 303,
        "autre": 304,
        "cas": 305,
        "beau": 306,
        "jours": 307,
        "ton": 308,
        "vu": 309,
        "pe": 310,
        "ses": 311,
        "mar": 312,
        "ques": 313,
        "ique": 314,
        "met": 315,
        "der": 316,
        "fois": 317,
        "tous": 318,
        "ve": 319,
        "ler": 320,
        "tement": 321,
        "poli": 322,
        "pense": 323,
        "autres": 324,
        "ver": 325,
        "contre": 326,
        "cher": 327,
        "soit": 328,
        "tru": 329,
        "ance": 330,
        "voir": 331,
        "ence": 332,
        "ap": 333,
        "franç": 334,
        "vraiment": 335,
        "conn": 336,
        "core": 337,
        "lé": 338,
        "deux": 339,
        "nous": 340,
        "cor": 341,
        "pri": 342,
        "main": 343,
        "français": 344,
        "encore": 345,
        "où": 346,
        "lo": 347,
        "pre": 348,
        "beaucoup": 349,
        "trop": 350,
        "monde": 351,
        "asse": 352,
        "ie": 353,
        "part": 354,
        "ang": 355,
        "cho": 356,
        "probl": 357,
        "tain": 358,
        "eff": 359,
        "urs": 360,
        "sion": 361,
        "sais": 362,
        "im": 363,
        "pris": 364,
        "bre": 365,
        "bli": 366,
        "déj": 367,
        "déjà": 368,
        "toujours": 369,
        "ôt": 370,
        "mple": 371,
        "peux": 372,
        "vous": 373,
        "gran": 374,
        "ja": 375,
        "vie": 376,
        "soci": 377,
        "aille": 378,
        "chose": 379,
        "avant": 380,
        "fais": 381,
        "prendre": 382,
        "lais": 383,
        "ho": 384,
        "car": 385,
        "aient": 386,
        "pos": 387,
        "diff": 388,
        "personne": 389,
        "ction": 390,
        "avait": 391,
        "comment": 392,
        "estion": 393,
        "jamais": 394,
        "lon": 395,
        "rest": 396,
        "mil": 397,
        "comp": 398,
        "tér": 399,
        "pon": 400,
        "vais": 401,
        "jet": 402,
        "truc": 403,
        "voi": 404,
        "gar": 405,
        "iste": 406,
        "tant": 407,
        "pet": 408,
        "pres": 409,
        "ici": 410,
        "pays": 411,
        "cour": 412,
        "certain": 413,
        "ite": 414,
        "rait": 415,
        "trav": 416,
        "ture": 417,
        "accor": 418,
        "00": 419,
        "question": 420,
        "ab": 421,
        "imp": 422,
        "ine": 423,
        "idé": 424,
        "merci": 425,
        "assez": 426,
        "leurs": 427,
        "accord": 428,
        "problème": 429,
        "plut": 430,
        "veu": 431,
        "tent": 432,
        "comm": 433,
        "min": 434,
        "em": 435,
        "gen": 436,
        "genre": 437,
        "rap": 438,
        "surtout": 439,
        "cu": 440,
        "sent": 441,
        "én": 442,
        "intér": 443,
        "exe": 444,
        "th": 445,
        "gros": 446,
        "el": 447,
        "vent": 448,
        "nom": 449,
        "pens": 450,
        "sé": 451,
        "premi": 452,
        "raison": 453,
        "trouve": 454,
        "auc": 455,
        "ga": 456,
        "sem": 457,
        "plutôt": 458,
        "aine": 459,
        "rer": 460,
        "poin": 461,
        "avais": 462,
        "mieux": 463,
        "veux": 464,
        "dre": 465,
        "pouv": 466,
        "util": 467,
        "exemple": 468,
        "cela": 469,
        "point": 470,
        "to": 471,
        "politique": 472,
        "ten": 473,
        "ailleurs": 474,
        "nes": 475,
        "ven": 476,
        "mis": 477,
        "ba": 478,
        "arti": 479,
        "pend": 480,
        "arri": 481,
        "hu": 482,
        "depuis": 483,
        "éri": 484,
        "reste": 485,
        "différ": 486,
        "fil": 487,
        "port": 488,
        "gne": 489,
        "toute": 490,
        "ail": 491,
        "mettre": 492,
        "petit": 493,
        "vois": 494,
        "répon": 495,
        "bou": 496,
        "sous": 497,
        "parle": 498,
        "ple": 499,
        "pi": 500,
        "deman": 501,
        "droit": 502,
        "ceux": 503,
        "serait": 504,
        "ouais": 505,
        "do": 506,
        "mment": 507,
        "grand": 508,
        "seu": 509,
        "souv": 510,
        "orte": 511,
        "ants": 512,
        "déb": 513,
        "sens": 514,
        "fon": 515,
        "chez": 516,
        "artic": 517,
        "cé": 518,
        "anné": 519,
        "veau": 520,
        "fi": 521,
        "inter": 522,
        "crois": 523,
        "font": 524,
        "publi": 525,
        "endre": 526,
        "vou": 527,
        "pourquoi": 528,
        "etc": 529,
        "veut": 530,
        "bonne": 531,
        "alité": 532,
        "cul": 533,
        "possi": 534,
        "age": 535,
        "ats": 536,
        "contr": 537,
        "ol": 538,
        "ers": 539,
        "pla": 540,
        "tour": 541,
        "jou": 542,
        "cri": 543,
        "air": 544,
        "his": 545,
        "moment": 546,
        "sujet": 547,
        "mme": 548,
        "connais": 549,
        "ner": 550,
        "gau": 551,
        "ange": 552,
        "utilis": 553,
        "gén": 554,
        "génér": 555,
        "niveau": 556,
        "ale": 557,
        "pouvoir": 558,
        "sû": 559,
        "mec": 560,
        "autant": 561,
        "vre": 562,
        "travail": 563,
        "partie": 564,
        "moy": 565,
        "ête": 566,
        "tive": 567,
        "tions": 568,
        "oite": 569,
        "quelques": 570,
        "seul": 571,
        "aller": 572,
        "europ": 573,
        "ouver": 574,
        "gauche": 575,
        "plu": 576,
        "doit": 577,
        "compte": 578,
        "yer": 579,
        "nouv": 580,
        "mainten": 581,
        "sys": 582,
        "nu": 583,
        "cl": 584,
        "ille": 585,
        "bah": 586,
        "cha": 587,
        "gra": 588,
        "fem": 589,
        "dont": 590,
        "erre": 591,
        "iens": 592,
        "elles": 593,
        "article": 594,
        "dent": 595,
        "cours": 596,
        "pendant": 597,
        "idée": 598,
        "certains": 599,
        "toire": 600,
        "gue": 601,
        "20": 602,
        "solu": 603,
        "semble": 604,
        "vé": 605,
        "cons": 606,
        "aurait": 607,
        "fau": 608,
        "ard": 609,
        "regar": 610,
        "effet": 611,
        "ima": 612,
        "vers": 613,
        "llement": 614,
        "maintenant": 615,
        "possible": 616,
        "ts": 617,
        "ty": 618,
        "pare": 619,
        "parler": 620,
        "heu": 621,
        "souvent": 622,
        "am": 623,
        "choi": 624,
        "aires": 625,
        "faç": 626,
        "façon": 627,
        "derni": 628,
        "toutes": 629,
        "ag": 630,
        "nement": 631,
        "bes": 632,
        "compl": 633,
        "sus": 634,
        "notre": 635,
        "chos": 636,
        "choses": 637,
        "passer": 638,
        "vient": 639,
        "histoire": 640,
        "sinon": 641,
        "prends": 642,
        "pression": 643,
        "nor": 644,
        "passe": 645,
        "syst": 646,
        "suite": 647,
        "airement": 648,
        "droite": 649,
        "heure": 650,
        "gent": 651,
        "cô": 652,
        "côté": 653,
        "sou": 654,
        "sau": 655,
        "intéres": 656,
        "personnes": 657,
        "enfin": 658,
        "trouver": 659,
        "sûr": 660,
        "ph": 661,
        "tivement": 662,
        "cis": 663,
        "état": 664,
        "anger": 665,
        "quelqu": 666,
        "isme": 667,
        "sera": 668,
        "sour": 669,
        "besoin": 670,
        "ière": 671,
        "orité": 672,
        "ju": 673,
        "éle": 674,
        "écon": 675,
        "écono": 676,
        "économi": 677,
        "quelque": 678,
        "plique": 679,
        "aucun": 680,
        "lan": 681,
        "dou": 682,
        "dessus": 683,
        "macr": 684,
        "macron": 685,
        "lent": 686,
        "vis": 687,
        "alle": 688,
        "cla": 689,
        "différent": 690,
        "mau": 691,
        "mauvais": 692,
        "système": 693,
        "sor": 694,
        "place": 695,
        "nombre": 696,
        "vote": 697,
        "fn": 698,
        "présent": 699,
        "can": 700,
        "années": 701,
        "log": 702,
        "rapport": 703,
        "lig": 704,
        "fer": 705,
        "tend": 706,
        "premier": 707,
        "produ": 708,
        "mois": 709,
        "sieur": 710,
        "bas": 711,
        "chi": 712,
        "savoir": 713,
        "oire": 714,
        "plein": 715,
        "lib": 716,
        "sant": 717,
        "commun": 718,
        "import": 719,
        "justement": 720,
        "nos": 721,
        "société": 722,
        "tiques": 723,
        "aime": 724,
        "na": 725,
        "fou": 726,
        "sement": 727,
        "long": 728,
        "oy": 729,
        "sauf": 730,
        "popu": 731,
        "loin": 732,
        "chaque": 733,
        "lation": 734,
        "avis": 735,
        "vont": 736,
        "faci": 737,
        "ons": 738,
        "moyen": 739,
        "mmes": 740,
        "fr": 741,
        "pose": 742,
        "enf": 743,
        "mont": 744,
        "nent": 745,
        "sorti": 746,
        "change": 747,
        "celui": 748,
        "anc": 749,
        "effec": 750,
        "effectivement": 751,
        "loi": 752,
        "merde": 753,
        "ger": 754,
        "cau": 755,
        "argu": 756,
        "argument": 757,
        "posi": 758,
        "paris": 759,
        "aucune": 760,
        "ok": 761,
        "forcé": 762,
        "mb": 763,
        "prin": 764,
        "princi": 765,
        "lire": 766,
        "nation": 767,
        "all": 768,
        "istes": 769,
        "the": 770,
        "arr": 771,
        "étaient": 772,
        "rement": 773,
        "essa": 774,
        "devr": 775,
        "évi": 776,
        "hui": 777,
        "servi": 778,
        "demande": 779,
        "aujour": 780,
        "aujourd": 781,
        "quelle": 782,
        "compris": 783,
        "mpa": 784,
        "face": 785,
        "imag": 786,
        "êt": 787,
        "cré": 788,
        "tellement": 789,
        "sul": 790,
        "exac": 791,
        "tex": 792,
        "len": 793,
        "étu": 794,
        "peuvent": 795,
        "importe": 796,
        "ps": 797,
        "sage": 798,
        "fai": 799,
        "forma": 800,
        "ben": 801,
        "réf": 802,
        "inf": 803,
        "ris": 804,
        "bi": 805,
        "milli": 806,
        "cause": 807,
        "forcément": 808,
        "empl": 809,
        "situ": 810,
        "situation": 811,
        "public": 812,
        "super": 813,
        "étais": 814,
        "venir": 815,
        "doute": 816,
        "fonction": 817,
        "10": 818,
        "argent": 819,
        "marche": 820,
        "ad": 821,
        "ure": 822,
        "net": 823,
        "comprendre": 824,
        "culture": 825,
        "donne": 826,
        "és": 827,
        "pec": 828,
        "mort": 829,
        "passé": 830,
        "of": 831,
        "ddit": 832,
        "ée": 833,
        "ue": 834,
        "pareil": 835,
        "simp": 836,
        "pire": 837,
        "blement": 838,
        "ience": 839,
        "sait": 840,
        "he": 841,
        "alement": 842,
        "plusieur": 843,
        "plusieurs": 844,
        "aur": 845,
        "choix": 846,
        "donné": 847,
        "site": 848,
        "iter": 849,
        "trucs": 850,
        "qué": 851,
        "relig": 852,
        "permet": 853,
        "pourrait": 854,
        "cherche": 855,
        "go": 856,
        "ôle": 857,
        "teur": 858,
        "simple": 859,
        "lench": 860,
        "lenchon": 861,
        "prise": 862,
        "maj": 863,
        "prix": 864,
        "manière": 865,
        "arrive": 866,
        "lieu": 867,
        "terme": 868,
        "base": 869,
        "terr": 870,
        "rac": 871,
        "jeu": 872,
        "vite": 873,
        "texte": 874,
        "guerre": 875,
        "suff": 876,
        "lors": 877,
        "cep": 878,
        "anti": 879,
        "proba": 880,
        "envie": 881,
        "seulement": 882,
        "201": 883,
        "soi": 884,
        "femmes": 885,
        "exactement": 886,
        "donner": 887,
        "dev": 888,
        "réponse": 889,
        "voit": 890,
        "journ": 891,
        "type": 892,
        "existe": 893,
        "vidé": 894,
        "pelle": 895,
        "ori": 896,
        "esp": 897,
        "post": 898,
        "vue": 899,
        "direc": 900,
        "ire": 901,
        "ètement": 902,
        "progra": 903,
        "hein": 904,
        "simplement": 905,
        "étr": 906,
        "aurais": 907,
        "endu": 908,
        "fond": 909,
        "éco": 910,
        "reddit": 911,
        "gouver": 912,
        "gouvernement": 913,
        "comprends": 914,
        "mage": 915,
        "actu": 916,
        "cti": 917,
        "médi": 918,
        "meil": 919,
        "edit": 920,
        "ach": 921,
        "débat": 922,
        "celle": 923,
        "impression": 924,
        "voul": 925,
        "nouveau": 926,
        "ica": 927,
        "jusqu": 928,
        "sse": 929,
        "absolu": 930,
        "mélenchon": 931,
        "ot": 932,
        "commentaire": 933,
        "explique": 934,
        "europe": 935,
        "ave": 936,
        "sy": 937,
        "fé": 938,
        "grande": 939,
        "changer": 940,
        "chement": 941,
        "aura": 942,
        "général": 943,
        "èmes": 944,
        "tel": 945,
        "pau": 946,
        "europé": 947,
        "oc": 948,
        "seule": 949,
        "majorité": 950,
        "tête": 951,
        "ché": 952,
        "cur": 953,
        "ches": 954,
        "première": 955,
        "mot": 956,
        "candi": 957,
        "candid": 958,
        "gé": 959,
        "tiens": 960,
        "prof": 961,
        "viol": 962,
        "dur": 963,
        "séri": 964,
        "ob": 965,
        "extr": 966,
        "extrê": 967,
        "devrait": 968,
        "if": 969,
        "clairement": 970,
        "oubli": 971,
        "sc": 972,
        "enfants": 973,
        "propos": 974,
        "selon": 975,
        "meme": 976,
        "pourtant": 977,
        "attend": 978,
        "complètement": 979,
        "facile": 980,
        "voter": 981,
        "grou": 982,
        "anglais": 983,
        "pra": 984,
        "améri": 985,
        "améric": 986,
        "faux": 987,
        "particu": 988,
        "particuli": 989,
        "française": 990,
        "justi": 991,
        "contraire": 992,
        "homme": 993,
        "attent": 994,
        "social": 995,
        "veulent": 996,
        "politiques": 997,
        "penser": 998,
        "ban": 999,
        "cool": 1000,
        "able": 1001,
        "trouvé": 1002,
        "mêmes": 1003,
        "position": 1004,
        "probablement": 1005,
        "lien": 1006,
        "drait": 1007,
        "sup": 1008,
        "étant": 1009,
        "diffici": 1010,
        "conse": 1011,
        "publique": 1012,
        "secon": 1013,
        "heureu": 1014,
        "heureusement": 1015,
        "sal": 1016,
        "hors": 1017,
        "payer": 1018,
        "perso": 1019,
        "parfois": 1020,
        "lég": 1021,
        "ensuite": 1022,
        "différence": 1023,
        "ents": 1024,
        "population": 1025,
        "lè": 1026,
        "ég": 1027,
        "risque": 1028,
        "000": 1029,
        "programme": 1030,
        "rég": 1031,
        "film": 1032,
        "um": 1033,
        "haut": 1034,
        "sance": 1035,
        "cit": 1036,
        "source": 1037,
        "ins": 1038,
        "extrême": 1039,
        "famil": 1040,
        "produit": 1041,
        "gré": 1042,
        "journal": 1043,
        "boulo": 1044,
        "boulot": 1045,
        "teurs": 1046,
        "dom": 1047,
        "venu": 1048,
        "opin": 1049,
        "opinion": 1050,
        "intéressant": 1051,
        "fini": 1052,
        "problèmes": 1053,
        "hommes": 1054,
        "projet": 1055,
        "cent": 1056,
        "por": 1057,
        "déf": 1058,
        "rière": 1059,
        "femme": 1060,
        "ences": 1061,
        "important": 1062,
        "crit": 1063,
        "année": 1064,
        "logique": 1065,
        "ellement": 1066,
        "intérêt": 1067,
        "doi": 1068,
        "blanc": 1069,
        "emp": 1070,
        "lit": 1071,
        "viens": 1072,
        "bla": 1073,
        "respon": 1074,
        "informa": 1075,
        "plupart": 1076,
        "imagine": 1077,
        "vas": 1078,
        "épo": 1079,
        "époque": 1080,
        "longtemps": 1081,
        "ussi": 1082,
        "hon": 1083,
        "ide": 1084,
        "gle": 1085,
        "début": 1086,
        "mus": 1087,
        "musul": 1088,
        "tech": 1089,
        "internet": 1090,
        "ves": 1091,
        "petite": 1092,
        "résul": 1093,
        "résult": 1094,
        "croire": 1095,
        "faudrait": 1096,
        "prési": 1097,
        "président": 1098,
        "cès": 1099,
        "forme": 1100,
        "peur": 1101,
        "critique": 1102,
        "ères": 1103,
        "arrê": 1104,
        "difficile": 1105,
        "yé": 1106,
        "poser": 1107,
        "unique": 1108,
        "qua": 1109,
        "galement": 1110,
        "gement": 1111,
        "idées": 1112,
        "démo": 1113,
        "démoc": 1114,
        "démocra": 1115,
        "conf": 1116,
        "tomb": 1117,
        "af": 1118,
        "partir": 1119,
        "demment": 1120,
        "force": 1121,
        "ds": 1122,
        "aî": 1123,
        "certaines": 1124,
        "capa": 1125,
        "dépend": 1126,
        "gueu": 1127,
        "avaient": 1128,
        "représent": 1129,
        "meilleur": 1130,
        "tota": 1131,
        "commen": 1132,
        "ital": 1133,
        "absolument": 1134,
        "religion": 1135,
        "manque": 1136,
        "soir": 1137,
        "but": 1138,
        "vidéo": 1139,
        "pratique": 1140,
        "tard": 1141,
        "putain": 1142,
        "sortir": 1143,
        "utiliser": 1144,
        "bref": 1145,
        "marché": 1146,
        "ha": 1147,
        "heur": 1148,
        "final": 1149,
        "bout": 1150,
        "précis": 1151,
        "clair": 1152,
        "ville": 1153,
        "porte": 1154,
        "cus": 1155,
        "privé": 1156,
        "dois": 1157,
        "sui": 1158,
        "néces": 1159,
        "européen": 1160,
        "ye": 1161,
        "mand": 1162,
        "message": 1163,
        "train": 1164,
        "cert": 1165,
        "certaine": 1166,
        "isla": 1167,
        "èrement": 1168,
        "preu": 1169,
        "vres": 1170,
        "consi": 1171,
        "presque": 1172,
        "franchement": 1173,
        "ras": 1174,
        "rend": 1175,
        "laisse": 1176,
        "devant": 1177,
        "américain": 1178,
        "famille": 1179,
        "oh": 1180,
        "pho": 1181,
        "élection": 1182,
        "aie": 1183,
        "100": 1184,
        "vol": 1185,
        "prises": 1186,
        "chance": 1187,
        "one": 1188,
        "ète": 1189,
        "gag": 1190,
        "campa": 1191,
        "trois": 1192,
        "rou": 1193,
        "proche": 1194,
        "empê": 1195,
        "vaut": 1196,
        "réalité": 1197,
        "fillon": 1198,
        "achet": 1199,
        "rè": 1200,
        "demander": 1201,
        "déso": 1202,
        "désolé": 1203,
        "partout": 1204,
        "discours": 1205,
        "vieux": 1206,
        "également": 1207,
        "jeun": 1208,
        "jeunes": 1209,
        "pes": 1210,
        "50": 1211,
        "regarde": 1212,
        "respec": 1213,
        "regarder": 1214,
        "ances": 1215,
        "dès": 1216,
        "off": 1217,
        "xe": 1218,
        "libér": 1219,
        "normal": 1220,
        "mati": 1221,
        "pé": 1222,
        "préf": 1223,
        "retour": 1224,
        "techni": 1225,
        "télé": 1226,
        "libre": 1227,
        "etre": 1228,
        "entendu": 1229,
        "coû": 1230,
        "hab": 1231,
        "ouve": 1232,
        "travaille": 1233,
        "iqué": 1234,
        "chiff": 1235,
        "cli": 1236,
        "suffit": 1237,
        "terror": 1238,
        "bo": 1239,
        "liber": 1240,
        "liberté": 1241,
        "conti": 1242,
        "continu": 1243,
        "obli": 1244,
        "peine": 1245,
        "parents": 1246,
        "école": 1247,
        "minis": 1248,
        "laisser": 1249,
        "mod": 1250,
        "fort": 1251,
        "évidemment": 1252,
        "élec": 1253,
        "essayer": 1254,
        "derrière": 1255,
        "tra": 1256,
        "tte": 1257,
        "tenir": 1258,
        "da": 1259,
        "principe": 1260,
        "col": 1261,
        "vivre": 1262,
        "propre": 1263,
        "responsa": 1264,
        "sique": 1265,
        "marque": 1266,
        "mauvaise": 1267,
        "mots": 1268,
        "qualité": 1269,
        "médias": 1270,
        "ures": 1271,
        "semaine": 1272,
        "plan": 1273,
        "gueule": 1274,
        "lar": 1275,
        "dernier": 1276,
        "immi": 1277,
        "exis": 1278,
        "nota": 1279,
        "notamment": 1280,
        "service": 1281,
        "quasi": 1282,
        "concer": 1283,
        "conner": 1284,
        "questions": 1285,
        "cest": 1286,
        "référ": 1287,
        "puisque": 1288,
        "sar": 1289,
        "appe": 1290,
        "solution": 1291,
        "cap": 1292,
        "capital": 1293,
        "ligne": 1294,
        "30": 1295,
        "énor": 1296,
        "bil": 1297,
        "peuple": 1298,
        "év": 1299,
        "éviter": 1300,
        "accep": 1301,
        "heures": 1302,
        "ref": 1303,
        "voilà": 1304,
        "nécess": 1305,
        "pen": 1306,
        "mecs": 1307,
        "entreprise": 1308,
        "voulais": 1309,
        "titre": 1310,
        "sources": 1311,
        "moyens": 1312,
        "etat": 1313,
        "économie": 1314,
        "groupe": 1315,
        "action": 1316,
        "aug": 1317,
        "augment": 1318,
        "cité": 1319,
        "choisi": 1320,
        "commentaires": 1321,
        "nature": 1322,
        "économique": 1323,
        "campagne": 1324,
        "soient": 1325,
        "répondre": 1326,
        "totalement": 1327,
        "police": 1328,
        "imum": 1329,
        "bos": 1330,
        "discus": 1331,
        "discussion": 1332,
        "appelle": 1333,
        "vil": 1334,
        "gan": 1335,
        "hum": 1336,
        "ensem": 1337,
        "ensemble": 1338,
        "classe": 1339,
        "agit": 1340,
        "langue": 1341,
        "rendre": 1342,
        "atta": 1343,
        "fier": 1344,
        "jouer": 1345,
        "arrêter": 1346,
        "faute": 1347,
        "grosse": 1348,
        "verse": 1349,
        "ieu": 1350,
        "sta": 1351,
        "recherche": 1352,
        "allait": 1353,
        "matique": 1354,
        "gars": 1355,
        "attention": 1356,
        "condi": 1357,
        "millions": 1358,
        "char": 1359,
        "hol": 1360,
        "hollan": 1361,
        "hollande": 1362,
        "ainsi": 1363,
        "entreprises": 1364,
        "petits": 1365,
        "écrit": 1366,
        "cient": 1367,
        "ication": 1368,
        "ges": 1369,
        "humain": 1370,
        "aite": 1371,
        "préfère": 1372,
        "uni": 1373,
        "mode": 1374,
        "terre": 1375,
        "modè": 1376,
        "utili": 1377,
        "utilise": 1378,
        "trait": 1379,
        "orig": 1380,
        "bat": 1381,
        "raisons": 1382,
        "cal": 1383,
        "sort": 1384,
        "déci": 1385,
        "ages": 1386,
        "phra": 1387,
        "phrase": 1388,
        "espère": 1389,
        "affaire": 1390,
        "démocrati": 1391,
        "démocratie": 1392,
        "volont": 1393,
        "contexte": 1394,
        "chercher": 1395,
        "justice": 1396,
        "uti": 1397,
        "utile": 1398,
        "certes": 1399,
        "limi": 1400,
        "limite": 1401,
        "sympa": 1402,
        "goo": 1403,
        "google": 1404,
        "arriver": 1405,
        "orie": 1406,
        "image": 1407,
        "mér": 1408,
        "malheureusement": 1409,
        "voiture": 1410,
        "rapide": 1411,
        "impôt": 1412,
        "blague": 1413,
        "chine": 1414,
        "avou": 1415,
        "salaire": 1416,
        "pren": 1417,
        "lution": 1418,
        "noir": 1419,
        "hy": 1420,
        "maines": 1421,
        "faits": 1422,
        "victi": 1423,
        "ier": 1424,
        "15": 1425,
        "mouve": 1426,
        "mouvement": 1427,
        "vouloir": 1428,
        "uniquement": 1429,
        "rester": 1430,
        "ay": 1431,
        "ayant": 1432,
        "trump": 1433,
        "riches": 1434,
        "parles": 1435,
        "ations": 1436,
        "dernière": 1437,
        "candidat": 1438,
        "espr": 1439,
        "esprit": 1440,
        "preuve": 1441,
        "euros": 1442,
        "ord": 1443,
        "votre": 1444,
        "faisait": 1445,
        "mesure": 1446,
        "sark": 1447,
        "sarko": 1448,
        "logie": 1449,
        "milit": 1450,
        "sub": 1451,
        "chier": 1452,
        "jeux": 1453,
        "dét": 1454,
        "études": 1455,
        "chô": 1456,
        "sert": 1457,
        "connu": 1458,
        "disent": 1459,
        "points": 1460,
        "enir": 1461,
        "valeur": 1462,
        "rfrance": 1463,
        "penses": 1464,
        "principa": 1465,
        "iennent": 1466,
        "mise": 1467,
        "titu": 1468,
        "info": 1469,
        "test": 1470,
        "exp": 1471,
        "expér": 1472,
        "expérience": 1473,
        "musulm": 1474,
        "musulmans": 1475,
        "pensais": 1476,
        "tendance": 1477,
        "chac": 1478,
        "chacun": 1479,
        "porter": 1480,
        "expliquer": 1481,
        "èce": 1482,
        "ole": 1483,
        "sence": 1484,
        "cel": 1485,
        "allema": 1486,
        "allemagne": 1487,
        "droits": 1488,
        "bilité": 1489,
        "ieux": 1490,
        "minut": 1491,
        "minutes": 1492,
        "nouvelle": 1493,
        "passage": 1494,
        "ceci": 1495,
        "emploi": 1496,
        "entend": 1497,
        "conseil": 1498,
        "directement": 1499,
        "impossible": 1500,
        "nan": 1501,
        "aide": 1502,
        "sérieux": 1503,
        "pauvres": 1504,
        "grave": 1505,
        "sociale": 1506,
        "technique": 1507,
        "expl": 1508,
        "appare": 1509,
        "apparemment": 1510,
        "you": 1511,
        "pie": 1512,
        "acheter": 1513,
        "gues": 1514,
        "gration": 1515,
        "compliqué": 1516,
        "partis": 1517,
        "taux": 1518,
        "proch": 1519,
        "plais": 1520,
        "plaisir": 1521,
        "rése": 1522,
        "autour": 1523,
        "écou": 1524,
        "poste": 1525,
        "commence": 1526,
        "lic": 1527,
        "équi": 1528,
        "constru": 1529,
        "milieu": 1530,
        "puisse": 1531,
        "sécur": 1532,
        "sécurité": 1533,
        "particulier": 1534,
        "dû": 1535,
        "yeux": 1536,
        "décis": 1537,
        "décision": 1538,
        "arab": 1539,
        "telle": 1540,
        "compar": 1541,
        "citoy": 1542,
        "courant": 1543,
        "doivent": 1544,
        "200": 1545,
        "employ": 1546,
        "patr": 1547,
        "thé": 1548,
        "nationale": 1549,
        "auto": 1550,
        "lois": 1551,
        "ouvri": 1552,
        "ctif": 1553,
        "st": 1554,
        "honn": 1555,
        "connaî": 1556,
        "pauvre": 1557,
        "amis": 1558,
        "arrivé": 1559,
        "dommage": 1560,
        "région": 1561,
        "lim": 1562,
        "devient": 1563,
        "vision": 1564,
        "coté": 1565,
        "cf": 1566,
        "rédu": 1567,
        "dedans": 1568,
        "bles": 1569,
        "carte": 1570,
        "indi": 1571,
        "mère": 1572,
        "demain": 1573,
        "scient": 1574,
        "changement": 1575,
        "envi": 1576,
        "envir": 1577,
        "environ": 1578,
        "rue": 1579,
        "rentre": 1580,
        "êts": 1581,
        "nant": 1582,
        "violence": 1583,
        "cin": 1584,
        "bu": 1585,
        "mission": 1586,
        "sond": 1587,
        "ode": 1588,
        "chant": 1589,
        "travailler": 1590,
        "facilement": 1591,
        "inverse": 1592,
        "capable": 1593,
        "chin": 1594,
        "erreur": 1595,
        "rela": 1596,
        "père": 1597,
        "remarque": 1598,
        "aimer": 1599,
        "tien": 1600,
        "laquelle": 1601,
        "hist": 1602,
        "différents": 1603,
        "seront": 1604,
        "chiffres": 1605,
        "ards": 1606,
        "lis": 1607,
        "empêche": 1608,
        "rappelle": 1609,
        "attaque": 1610,
        "réussi": 1611,
        "gagner": 1612,
        "version": 1613,
        "poi": 1614,
        "we": 1615,
        "insul": 1616,
        "chang": 1617,
        "modèle": 1618,
        "avantage": 1619,
        "refus": 1620,
        "collè": 1621,
        "personnellement": 1622,
        "dow": 1623,
        "grands": 1624,
        "articles": 1625,
        "fac": 1626,
        "foutre": 1627,
        "ct": 1628,
        "journé": 1629,
        "journée": 1630,
        "content": 1631,
        "règ": 1632,
        "règles": 1633,
        "bais": 1634,
        "ancer": 1635,
        "national": 1636,
        "résultat": 1637,
        "arguments": 1638,
        "islam": 1639,
        "allemand": 1640,
        "voire": 1641,
        "let": 1642,
        "pub": 1643,
        "utilisé": 1644,
        "aider": 1645,
        "volution": 1646,
        "parl": 1647,
        "prennent": 1648,
        "vér": 1649,
        "défini": 1650,
        "définition": 1651,
        "érie": 1652,
        "parta": 1653,
        "géni": 1654,
        "ime": 1655,
        "up": 1656,
        "avoue": 1657,
        "généralement": 1658,
        "consé": 1659,
        "conséqu": 1660,
        "anche": 1661,
        "créer": 1662,
        "clé": 1663,
        "apprendre": 1664,
        "centre": 1665,
        "bons": 1666,
        "voix": 1667,
        "liste": 1668,
        "effort": 1669,
        "perdre": 1670,
        "santé": 1671,
        "sûrement": 1672,
        "envo": 1673,
        "lol": 1674,
        "endr": 1675,
        "endroit": 1676,
        "juif": 1677,
        "code": 1678,
        "personn": 1679,
        "édu": 1680,
        "éduca": 1681,
        "éducation": 1682,
        "tro": 1683,
        "malgré": 1684,
        "données": 1685,
        "ordre": 1686,
        "jeune": 1687,
        "américains": 1688,
        "chômage": 1689,
        "candidats": 1690,
        "enfant": 1691,
        "méde": 1692,
        "vraie": 1693,
        "hah": 1694,
        "haha": 1695,
        "différentes": 1696,
        "photo": 1697,
        "origine": 1698,
        "tient": 1699,
        "conditions": 1700,
        "second": 1701,
        "arre": 1702,
        "pous": 1703,
        "ante": 1704,
        "sujets": 1705,
        "montre": 1706,
        "finir": 1707,
        "moiti": 1708,
        "moitié": 1709,
        "libéral": 1710,
        "minimum": 1711,
        "gni": 1712,
        "idéo": 1713,
        "conv": 1714,
        "convain": 1715,
        "maison": 1716,
        "racisme": 1717,
        "vendre": 1718,
        "belle": 1719,
        "ya": 1720,
        "république": 1721,
        "sorte": 1722,
        "matin": 1723,
        "dirais": 1724,
        "papi": 1725,
        "compor": 1726,
        "comportement": 1727,
        "déve": 1728,
        "dével": 1729,
        "dévelop": 1730,
        "suffis": 1731,
        "joue": 1732,
        "oublié": 1733,
        "voie": 1734,
        "largement": 1735,
        "semaines": 1736,
        "confi": 1737,
        "confiance": 1738,
        "instant": 1739,
        "marr": 1740,
        "marrant": 1741,
        "viennent": 1742,
        "norma": 1743,
        "usa": 1744,
        "montrer": 1745,
        "parlé": 1746,
        "classi": 1747,
        "jean": 1748,
        "bal": 1749,
        "disant": 1750,
        "dépu": 1751,
        "député": 1752,
        "drôle": 1753,
        "espa": 1754,
        "produits": 1755,
        "détail": 1756,
        "devenir": 1757,
        "auraient": 1758,
        "perdu": 1759,
        "fasse": 1760,
        "vit": 1761,
        "considé": 1762,
        "hamon": 1763,
        "grandes": 1764,
        "attends": 1765,
        "bé": 1766,
        "lequel": 1767,
        "comprend": 1768,
        "aff": 1769,
        "euro": 1770,
        "fera": 1771,
        "étudi": 1772,
        "deuxi": 1773,
        "deuxième": 1774,
        "page": 1775,
        "soucis": 1776,
        "dus": 1777,
        "bonnes": 1778,
        "manger": 1779,
        "corre": 1780,
        "états": 1781,
        "nuit": 1782,
        "att": 1783,
        "attendre": 1784,
        "meille": 1785,
        "meilleure": 1786,
        "déc": 1787,
        "primer": 1788,
        "combien": 1789,
        "propose": 1790,
        "immigration": 1791,
        "étranger": 1792,
        "accès": 1793,
        "table": 1794,
        "avez": 1795,
        "tif": 1796,
        "référence": 1797,
        "services": 1798,
        "livre": 1799,
        "théorie": 1800,
        "be": 1801,
        "obje": 1802,
        "objectif": 1803,
        "moyenne": 1804,
        "expression": 1805,
        "dieu": 1806,
        "ène": 1807,
        "certainement": 1808,
        "revenu": 1809,
        "sty": 1810,
        "style": 1811,
        "mét": 1812,
        "métho": 1813,
        "rire": 1814,
        "biz": 1815,
        "acti": 1816,
        "activ": 1817,
        "activité": 1818,
        "disais": 1819,
        "défendre": 1820,
        "média": 1821,
        "finalement": 1822,
        "rus": 1823,
        "foi": 1824,
        "mets": 1825,
        "impôts": 1826,
        "atég": 1827,
        "presse": 1828,
        "applique": 1829,
        "compa": 1830,
        "arrête": 1831,
        "ancien": 1832,
        "flic": 1833,
        "sommes": 1834,
        "sembl": 1835,
        "mor": 1836,
        "spé": 1837,
        "spéci": 1838,
        "parfai": 1839,
        "parfaitement": 1840,
        "faisant": 1841,
        "sortie": 1842,
        "domaine": 1843,
        "men": 1844,
        "contrôle": 1845,
        "maire": 1846,
        "nord": 1847,
        "40": 1848,
        "ouvert": 1849,
        "tirer": 1850,
        "mbre": 1851,
        "grâ": 1852,
        "grâce": 1853,
        "cadre": 1854,
        "égalité": 1855,
        "boî": 1856,
        "garder": 1857,
        "siè": 1858,
        "sièc": 1859,
        "moin": 1860,
        "moindre": 1861,
        "générale": 1862,
        "popul": 1863,
        "orique": 1864,
        "unis": 1865,
        "sav": 1866,
        "savent": 1867,
        "dehors": 1868,
        "russi": 1869,
        "russie": 1870,
        "armé": 1871,
        "armée": 1872,
        "pensé": 1873,
        "votes": 1874,
        "étrang": 1875,
        "nécessaire": 1876,
        "entendre": 1877,
        "cre": 1878,
        "indivi": 1879,
        "résultats": 1880,
        "court": 1881,
        "suppose": 1882,
        "fémin": 1883,
        "légi": 1884,
        "légiti": 1885,
        "serais": 1886,
        "coin": 1887,
        "pouvait": 1888,
        "retrouve": 1889,
        "gratu": 1890,
        "ministre": 1891,
        "évident": 1892,
        "plain": 1893,
        "jouter": 1894,
        "ouvrir": 1895,
        "pain": 1896,
        "ffe": 1897,
        "bac": 1898,
        "gamin": 1899,
        "voté": 1900,
        "production": 1901,
        "élections": 1902,
        "hier": 1903,
        "ly": 1904,
        "sud": 1905,
        "retrouver": 1906,
        "méti": 1907,
        "énorme": 1908,
        "choisir": 1909,
        "visi": 1910,
        "actions": 1911,
        "continuer": 1912,
        "sarkoz": 1913,
        "sarkozy": 1914,
        "fout": 1915,
        "max": 1916,
        "devoir": 1917,
        "changé": 1918,
        "sité": 1919,
        "particulièrement": 1920,
        "valeurs": 1921,
        "frais": 1922,
        "parlais": 1923,
        "fut": 1924,
        "garde": 1925,
        "quasiment": 1926,
        "volonté": 1927,
        "connait": 1928,
        "wit": 1929,
        "intérêts": 1930,
        "chir": 1931,
        "mu": 1932,
        "musique": 1933,
        "monter": 1934,
        "rappe": 1935,
        "élé": 1936,
        "élément": 1937,
        "voulait": 1938,
        "envers": 1939,
        "traite": 1940,
        "fallait": 1941,
        "corps": 1942,
        "légal": 1943,
        "pensent": 1944,
        "euh": 1945,
        "celles": 1946,
        "iel": 1947,
        "fille": 1948,
        "faible": 1949,
        "électeurs": 1950,
        "conten": 1951,
        "contenu": 1952,
        "surement": 1953,
        "crise": 1954,
        "commencer": 1955,
        "act": 1956,
        "connaître": 1957,
        "doig": 1958,
        "tomber": 1959,
        "ess": 1960,
        "essaie": 1961,
        "élu": 1962,
        "sérieu": 1963,
        "sérieusement": 1964,
        "str": 1965,
        "petites": 1966,
        "parlement": 1967,
        "lorsque": 1968,
        "dirait": 1969,
        "nombreux": 1970,
        "ctement": 1971,
        "débi": 1972,
        "senti": 1973,
        "mondi": 1974,
        "fonctionne": 1975,
        "quels": 1976,
        "concerne": 1977,
        "science": 1978,
        "information": 1979,
        "série": 1980,
        "curr": 1981,
        "currence": 1982,
        "raciste": 1983,
        "souviens": 1984,
        "sin": 1985,
        "dure": 1986,
        "ami": 1987,
        "franc": 1988,
        "finance": 1989,
        "aines": 1990,
        "habi": 1991,
        "habitu": 1992,
        "habitude": 1993,
        "boite": 1994,
        "etait": 1995,
        "payé": 1996,
        "rôle": 1997,
        "pourra": 1998,
        "anal": 1999,
        "analy": 2000,
        "analyse": 2001,
        "demandé": 2002,
        "intéresse": 2003,
        "groupes": 2004,
        "inv": 2005,
        "invest": 2006,
        "seuls": 2007,
        "entière": 2008,
        "parait": 2009,
        "sociaux": 2010,
        "écri": 2011,
        "écrire": 2012,
        "sites": 2013,
        "défense": 2014,
        "pis": 2015,
        "devrais": 2016,
        "élè": 2017,
        "commencé": 2018,
        "nuclé": 2019,
        "nucléaire": 2020,
        "quarti": 2021,
        "âge": 2022,
        "pourr": 2023,
        "suivre": 2024,
        "journalistes": 2025,
        "naz": 2026,
        "parlent": 2027,
        "respect": 2028,
        "quant": 2029,
        "essayé": 2030,
        "actuel": 2031,
        "bor": 2032,
        "borde": 2033,
        "bordel": 2034,
        "route": 2035,
        "feu": 2036,
        "pourrais": 2037,
        "rapidement": 2038,
        "communaut": 2039,
        "communauté": 2040,
        "auteur": 2041,
        "effica": 2042,
        "efficace": 2043,
        "blo": 2044,
        "ferait": 2045,
        "direct": 2046,
        "tuer": 2047,
        "consid": 2048,
        "considère": 2049,
        "dange": 2050,
        "dangere": 2051,
        "dangereux": 2052,
        "humour": 2053,
        "étude": 2054,
        "courage": 2055,
        "out": 2056,
        "milliards": 2057,
        "tention": 2058,
        "organ": 2059,
        "organis": 2060,
        "européenne": 2061,
        "continue": 2062,
        "triste": 2063,
        "préci": 2064,
        "br": 2065,
        "ieur": 2066,
        "disons": 2067,
        "nouvelles": 2068,
        "prochaine": 2069,
        "savais": 2070,
        "clu": 2071,
        "25": 2072,
        "90": 2073,
        "vant": 2074,
        "monsieur": 2075,
        "combat": 2076,
        "vérité": 2077,
        "pensée": 2078,
        "bud": 2079,
        "budg": 2080,
        "budget": 2081,
        "prêt": 2082,
        "interdit": 2083,
        "juifs": 2084,
        "top": 2085,
        "essaye": 2086,
        "émission": 2087,
        "trans": 2088,
        "transport": 2089,
        "hypo": 2090,
        "confir": 2091,
        "êtes": 2092,
        "puisqu": 2093,
        "parmi": 2094,
        "oublier": 2095,
        "personnel": 2096,
        "classique": 2097,
        "çu": 2098,
        "exist": 2099,
        "aspec": 2100,
        "disait": 2101,
        "sac": 2102,
        "armes": 2103,
        "actuellement": 2104,
        "avance": 2105,
        "infos": 2106,
        "ridi": 2107,
        "ridicu": 2108,
        "ridicule": 2109,
        "allez": 2110,
        "phy": 2111,
        "physique": 2112,
        "80": 2113,
        "formation": 2114,
        "seraient": 2115,
        "morts": 2116,
        "contrairement": 2117,
        "utilisa": 2118,
        "pc": 2119,
        "date": 2120,
        "rev": 2121,
        "revanche": 2122,
        "concep": 2123,
        "concept": 2124,
        "réseau": 2125,
        "conneri": 2126,
        "conneries": 2127,
        "raisonnement": 2128,
        "carré": 2129,
        "carrément": 2130,
        "papier": 2131,
        "téléph": 2132,
        "téléphone": 2133,
        "mérite": 2134,
        "concernant": 2135,
        "val": 2136,
        "cependant": 2137,
        "discu": 2138,
        "discuter": 2139,
        "bouqui": 2140,
        "vidéos": 2141,
        "dernières": 2142,
        "rie": 2143,
        "potes": 2144,
        "faite": 2145,
        "apres": 2146,
        "aimerais": 2147,
        "villes": 2148,
        "facebo": 2149,
        "facebook": 2150,
        "voulu": 2151,
        "souvenir": 2152,
        "seconde": 2153,
        "minorité": 2154,
        "croy": 2155,
        "chau": 2156,
        "chaud": 2157,
        "rée": 2158,
        "paraî": 2159,
        "paraît": 2160,
        "coût": 2161,
        "socia": 2162,
        "sociales": 2163,
        "mesures": 2164,
        "vall": 2165,
        "valls": 2166,
        "actuelle": 2167,
        "liens": 2168,
        "permis": 2169,
        "péri": 2170,
        "période": 2171,
        "glo": 2172,
        "globa": 2173,
        "globalement": 2174,
        "zone": 2175,
        "banque": 2176,
        "intel": 2177,
        "idéologie": 2178,
        "ultra": 2179,
        "assu": 2180,
        "normalement": 2181,
        "fie": 2182,
        "abord": 2183,
        "prison": 2184,
        "citoyens": 2185,
        "bosser": 2186,
        "chef": 2187,
        "vrais": 2188,
        "ouai": 2189,
        "consc": 2190,
        "conscience": 2191,
        "victimes": 2192,
        "via": 2193,
        "nouveaux": 2194,
        "équipe": 2195,
        "cale": 2196,
        "charge": 2197,
        "envoyer": 2198,
        "remettre": 2199,
        "affaires": 2200,
        "obligé": 2201,
        "utilisation": 2202,
        "vos": 2203,
        "conso": 2204,
        "consom": 2205,
        "consomma": 2206,
        "consommation": 2207,
        "premiers": 2208,
        "bizarre": 2209,
        "touche": 2210,
        "chances": 2211,
        "note": 2212,
        "matiquement": 2213,
        "avion": 2214,
        "sala": 2215,
        "salari": 2216,
        "allé": 2217,
        "fils": 2218,
        "excu": 2219,
        "excuse": 2220,
        "compter": 2221,
        "tort": 2222,
        "réaction": 2223,
        "devenu": 2224,
        "phot": 2225,
        "photos": 2226,
        "pied": 2227,
        "priori": 2228,
        "permettre": 2229,
        "quelles": 2230,
        "sport": 2231,
        "scientif": 2232,
        "scientifique": 2233,
        "musulman": 2234,
        "espace": 2235,
        "faites": 2236,
        "polici": 2237,
        "honnê": 2238,
        "honnêtement": 2239,
        "masse": 2240,
        "régime": 2241,
        "rouge": 2242,
        "propa": 2243,
        "propagan": 2244,
        "propagande": 2245,
        "mémoi": 2246,
        "mémoire": 2247,
        "oblig": 2248,
        "connaissance": 2249,
        "hé": 2250,
        "intéress": 2251,
        "12": 2252,
        "range": 2253,
        "mala": 2254,
        "marine": 2255,
        "suisse": 2256,
        "zon": 2257,
        "offre": 2258,
        "suffisa": 2259,
        "suffisamment": 2260,
        "tombe": 2261,
        "influ": 2262,
        "influence": 2263,
        "tives": 2264,
        "conséquences": 2265,
        "rarement": 2266,
        "nul": 2267,
        "énormé": 2268,
        "énormément": 2269,
        "sachant": 2270,
        "lorsqu": 2271,
        "possibilité": 2272,
        "pote": 2273,
        "goû": 2274,
        "goût": 2275,
        "départ": 2276,
        "films": 2277,
        "posé": 2278,
        "rentrer": 2279,
        "historique": 2280,
        "haine": 2281,
        "flics": 2282,
        "centra": 2283,
        "jo": 2284,
        "joli": 2285,
        "contrat": 2286,
        "quil": 2287,
        "new": 2288,
        "taper": 2289,
        "poids": 2290,
        "occa": 2291,
        "occasion": 2292,
        "jap": 2293,
        "japon": 2294,
        "vachement": 2295,
        "youtu": 2296,
        "youtube": 2297,
        "prét": 2298,
        "plutot": 2299,
        "exemp": 2300,
        "exemples": 2301,
        "opposition": 2302,
        "éton": 2303,
        "appel": 2304,
        "autrement": 2305,
        "religieux": 2306,
        "down": 2307,
        "revient": 2308,
        "entends": 2309,
        "responsable": 2310,
        "thre": 2311,
        "thread": 2312,
        "forte": 2313,
        "associ": 2314,
        "positions": 2315,
        "coûte": 2316,
        "tter": 2317,
        "clas": 2318,
        "classes": 2319,
        "conflit": 2320,
        "écoles": 2321,
        "fis": 2322,
        "baisse": 2323,
        "dos": 2324,
        "banques": 2325,
        "siècle": 2326,
        "derniers": 2327,
        "revenir": 2328,
        "grosses": 2329,
        "boîte": 2330,
        "alter": 2331,
        "alterna": 2332,
        "sondages": 2333,
        "accepter": 2334,
        "comptes": 2335,
        "bof": 2336,
        "effets": 2337,
        "meilleurs": 2338,
        "diz": 2339,
        "sure": 2340,
        "matière": 2341,
        "relativement": 2342,
        "travers": 2343,
        "double": 2344,
        "capitalisme": 2345,
        "imagin": 2346,
        "imaginer": 2347,
        "mari": 2348,
        "mariage": 2349,
        "faud": 2350,
        "faudra": 2351,
        "populaire": 2352,
        "tas": 2353,
        "propres": 2354,
        "représente": 2355,
        "appris": 2356,
        "éche": 2357,
        "échelle": 2358,
        "fron": 2359,
        "fronti": 2360,
        "bure": 2361,
        "bureau": 2362,
        "ressemble": 2363,
        "juge": 2364,
        "régu": 2365,
        "réguli": 2366,
        "régulièrement": 2367,
        "angle": 2368,
        "numér": 2369,
        "chinois": 2370,
        "terroristes": 2371,
        "européens": 2372,
        "lec": 2373,
        "lecture": 2374,
        "impa": 2375,
        "impact": 2376,
        "victime": 2377,
        "propri": 2378,
        "idi": 2379,
        "hau": 2380,
        "reven": 2381,
        "revenus": 2382,
        "écoute": 2383,
        "auras": 2384,
        "aurai": 2385,
        "partage": 2386,
        "révolution": 2387,
        "servir": 2388,
        "bel": 2389,
        "marqué": 2390,
        "réellement": 2391,
        "occu": 2392,
        "extrêmement": 2393,
        "chiant": 2394,
        "parole": 2395,
        "métier": 2396,
        "gos": 2397,
        "60": 2398,
        "étrangers": 2399,
        "fous": 2400,
        "visiblement": 2401,
        "blancs": 2402,
        "informatique": 2403,
        "afin": 2404,
        "vian": 2405,
        "viande": 2406,
        "gagné": 2407,
        "annon": 2408,
        "règle": 2409,
        "immigré": 2410,
        "immigrés": 2411,
        "risques": 2412,
        "empêcher": 2413,
        "termes": 2414,
        "éner": 2415,
        "énerg": 2416,
        "énergie": 2417,
        "dette": 2418,
        "vac": 2419,
        "vacances": 2420,
        "potent": 2421,
        "rible": 2422,
        "terrorisme": 2423,
        "importance": 2424,
        "ama": 2425,
        "avons": 2426,
        "thè": 2427,
        "thèse": 2428,
        "appeler": 2429,
        "joué": 2430,
        "comparais": 2431,
        "comparaison": 2432,
        "etats": 2433,
        "réduire": 2434,
        "salaires": 2435,
        "pseu": 2436,
        "pseudo": 2437,
        "journaliste": 2438,
        "gagne": 2439,
        "augmenter": 2440,
        "paye": 2441,
        "commis": 2442,
        "machine": 2443,
        "hyper": 2444,
        "importante": 2445,
        "comparer": 2446,
        "versité": 2447,
        "oid": 2448,
        "parfait": 2449,
        "répondu": 2450,
        "filles": 2451,
        "votent": 2452,
        "ig": 2453,
        "cru": 2454,
        "manif": 2455,
        "véri": 2456,
        "vérifier": 2457,
        "écouter": 2458,
        "vier": 2459,
        "humains": 2460,
        "delà": 2461,
        "opinions": 2462,
        "tromp": 2463,
        "voy": 2464,
        "cerveau": 2465,
        "économiques": 2466,
        "voitures": 2467,
        "that": 2468,
        "taille": 2469,
        "fav": 2470,
        "has": 2471,
        "hasard": 2472,
        "mondiale": 2473,
        "responsabilité": 2474,
        "justifier": 2475,
        "aimé": 2476,
        "riche": 2477,
        "arrivent": 2478,
        "suivi": 2479,
        "mination": 2480,
        "agir": 2481,
        "ado": 2482,
        "adore": 2483,
        "cident": 2484,
        "demi": 2485,
        "défaut": 2486,
        "fique": 2487,
        "dic": 2488,
        "memb": 2489,
        "membres": 2490,
        "députés": 2491,
        "gérer": 2492,
        "connerie": 2493,
        "couleur": 2494,
        "client": 2495,
        "étudiants": 2496,
        "sentiment": 2497,
        "joute": 2498,
        "débile": 2499,
        "absence": 2500,
        "réponses": 2501,
        "oublie": 2502,
        "tran": 2503,
        "auront": 2504,
        "mains": 2505,
        "tôt": 2506,
        "cherches": 2507,
        "primaire": 2508,
        "fro": 2509,
        "élèves": 2510,
        "montr": 2511,
        "fan": 2512,
        "méthode": 2513,
        "développe": 2514,
        "développement": 2515,
        "tourner": 2516,
        "cris": 2517,
        "vécu": 2518,
        "souh": 2519,
        "souhaite": 2520,
        "ration": 2521,
        "morale": 2522,
        "informations": 2523,
        "ouverture": 2524,
        "large": 2525,
        "avenir": 2526,
        "devrai": 2527,
        "devraient": 2528,
        "croissance": 2529,
        "atte": 2530,
        "attein": 2531,
        "coups": 2532,
        "ira": 2533,
        "éléments": 2534,
        "bras": 2535,
        "gique": 2536,
        "considérer": 2537,
        "usage": 2538,
        "juger": 2539,
        "bour": 2540,
        "iciel": 2541,
        "projets": 2542,
        "acte": 2543,
        "échange": 2544,
        "danger": 2545,
        "mettent": 2546,
        "joueur": 2547,
        "ël": 2548,
        "ressources": 2549,
        "devait": 2550,
        "traiter": 2551,
        "parlait": 2552,
        "tenter": 2553,
        "allemands": 2554,
        "concurrence": 2555,
        "18": 2556,
        "explication": 2557,
        "vin": 2558,
        "proposer": 2559,
        "assem": 2560,
        "assembl": 2561,
        "assemblée": 2562,
        "types": 2563,
        "colle": 2564,
        "rare": 2565,
        "respecter": 2566,
        "lutte": 2567,
        "tot": 2568,
        "total": 2569,
        "eh": 2570,
        "soirée": 2571,
        "ute": 2572,
        "él": 2573,
        "élus": 2574,
        "twit": 2575,
        "twitter": 2576,
        "francais": 2577,
        "présente": 2578,
        "connaissais": 2579,
        "réflé": 2580,
        "réfléchir": 2581,
        "poster": 2582,
        "sang": 2583,
        "café": 2584,
        "70": 2585,
        "patron": 2586,
        "résu": 2587,
        "républic": 2588,
        "républicain": 2589,
        "enne": 2590,
        "américaine": 2591,
        "coeur": 2592,
        "art": 2593,
        "militaire": 2594,
        "trai": 2595,
        "traitement": 2596,
        "front": 2597,
        "pai": 2598,
        "paix": 2599,
        "sex": 2600,
        "trol": 2601,
        "troll": 2602,
        "regardé": 2603,
        "posts": 2604,
        "aiment": 2605,
        "exprimer": 2606,
        "emplois": 2607,
        "réfle": 2608,
        "réflex": 2609,
        "réflexion": 2610,
        "sain": 2611,
        "saint": 2612,
        "détails": 2613,
        "séle": 2614,
        "sélection": 2615,
        "2012": 2616,
        "existent": 2617,
        "gestion": 2618,
        "rendu": 2619,
        "procès": 2620,
        "capacité": 2621,
        "confirme": 2622,
        "pieds": 2623,
        "rent": 2624,
        "iron": 2625,
        "privée": 2626,
        "légitime": 2627,
        "monn": 2628,
        "monnaie": 2629,
        "sois": 2630,
        "libéralisme": 2631,
        "décidé": 2632,
        "urg": 2633,
        "urgence": 2634,
        "clients": 2635,
        "mat": 2636,
        "vélo": 2637,
        "critiquer": 2638,
        "entièrement": 2639,
        "passent": 2640,
        "bois": 2641,
        "exper": 2642,
        "arabes": 2643,
        "soutien": 2644,
        "éc": 2645,
        "écran": 2646,
        "réel": 2647,
        "démocratique": 2648,
        "chiffre": 2649,
        "alcool": 2650,
        "milliers": 2651,
        "lancer": 2652,
        "principalement": 2653,
        "bande": 2654,
        "vide": 2655,
        "racistes": 2656,
        "puissance": 2657,
        "lié": 2658,
        "sale": 2659,
        "réce": 2660,
        "récemment": 2661,
        "utilisent": 2662,
        "hor": 2663,
        "dessous": 2664,
        "solutions": 2665,
        "afri": 2666,
        "afrique": 2667,
        "pét": 2668,
        "péter": 2669,
        "dres": 2670,
        "ident": 2671,
        "identité": 2672,
        "pardon": 2673,
        "cac": 2674,
        "convaincu": 2675,
        "féli": 2676,
        "félicit": 2677,
        "félicitations": 2678,
        "comple": 2679,
        "complexe": 2680,
        "différente": 2681,
        "futur": 2682,
        "employés": 2683,
        "environnement": 2684,
        "prouver": 2685,
        "territ": 2686,
        "territoire": 2687,
        "aspect": 2688,
        "parlant": 2689,
        "longue": 2690,
        "adap": 2691,
        "pierre": 2692,
        "obtenir": 2693,
        "retraite": 2694,
        "sexe": 2695,
        "livres": 2696,
        "relation": 2697,
        "lignes": 2698,
        "attendant": 2699,
        "précise": 2700,
        "pourraient": 2701,
        "fas": 2702,
        "augmentation": 2703,
        "conseille": 2704,
        "attentats": 2705,
        "statu": 2706,
        "statut": 2707,
        "sein": 2708,
        "inté": 2709,
        "ml": 2710,
        "mlp": 2711,
        "convaincre": 2712,
        "lycé": 2713,
        "lycée": 2714,
        "organisation": 2715,
        "bosse": 2716,
        "profs": 2717,
        "interdire": 2718,
        "stratég": 2719,
        "stratégie": 2720,
        "posté": 2721,
        "terrain": 2722,
        "anim": 2723,
        "animaux": 2724,
        "existence": 2725,
        "génial": 2726,
        "correctement": 2727,
        "intérieur": 2728,
        "14": 2729,
        "traité": 2730,
        "fall": 2731,
        "falloir": 2732,
        "rappeler": 2733,
        "vites": 2734,
        "vitesse": 2735,
        "lance": 2736,
        "prépa": 2737,
        "web": 2738,
        "amour": 2739,
        "paque": 2740,
        "paquet": 2741,
        "appliquer": 2742,
        "équival": 2743,
        "équivalent": 2744,
        "hér": 2745,
        "mai": 2746,
        "13": 2747,
        "présidenti": 2748,
        "présidentielle": 2749,
        "notion": 2750,
        "journaux": 2751,
        "2017": 2752,
        "espèce": 2753,
        "formes": 2754,
        "réal": 2755,
        "constitu": 2756,
        "constitution": 2757,
        "bient": 2758,
        "bientôt": 2759,
        "arme": 2760,
        "laissé": 2761,
        "souci": 2762,
        "progr": 2763,
        "progrès": 2764,
        "casse": 2765,
        "arrêté": 2766,
        "job": 2767,
        "sociétés": 2768,
        "heureux": 2769,
        "prévu": 2770,
        "scène": 2771,
        "gentil": 2772,
        "amen": 2773,
        "union": 2774,
        "camp": 2775,
        "préfé": 2776,
        "préféré": 2777,
        "individus": 2778,
        "durée": 2779,
        "mention": 2780,
        "russes": 2781,
        "entier": 2782,
        "const": 2783,
        "constat": 2784,
        "intention": 2785,
        "restent": 2786,
        "élevé": 2787,
        "ren": 2788,
        "plaindre": 2789,
        "imposer": 2790,
        "mener": 2791,
        "tri": 2792,
        "réseaux": 2793,
        "contact": 2794,
        "machin": 2795,
        "divers": 2796,
        "syrie": 2797,
        "débats": 2798,
        "reprendre": 2799,
        "indus": 2800,
        "industr": 2801,
        "industrie": 2802,
        "construire": 2803,
        "proches": 2804,
        "honte": 2805,
        "inutile": 2806,
        "investis": 2807,
        "investissement": 2808,
        "sec": 2809,
        "secteur": 2810,
        "honnête": 2811,
        "verra": 2812,
        "logement": 2813,
        "citoyen": 2814,
        "sondage": 2815,
        "fortement": 2816,
        "inqui": 2817,
        "inquiète": 2818,
        "proté": 2819,
        "protéger": 2820,
        "trouves": 2821,
        "bouquin": 2822,
        "béné": 2823,
        "bénéfi": 2824,
        "acheté": 2825,
        "création": 2826,
        "remp": 2827,
        "rempla": 2828,
        "remplacer": 2829,
        "françaises": 2830,
        "relations": 2831,
        "personnage": 2832,
        "peau": 2833,
        "gueur": 2834,
        "2016": 2835,
        "pousser": 2836,
        "postes": 2837,
        "entrée": 2838,
        "oeu": 2839,
        "oeuvre": 2840,
        "bête": 2841,
        "forces": 2842,
        "assur": 2843,
        "assurance": 2844,
        "diman": 2845,
        "dimanche": 2846,
        "noirs": 2847,
        "métro": 2848,
        "2015": 2849,
        "scien": 2850,
        "sciences": 2851,
        "médecin": 2852,
        "insulte": 2853,
        "actes": 2854,
        "bus": 2855,
        "réponds": 2856,
        "faisais": 2857,
        "suc": 2858,
        "succès": 2859,
        "sors": 2860,
        "auquel": 2861,
        "implique": 2862,
        "sible": 2863,
        "crée": 2864,
        "chat": 2865,
        "présence": 2866,
        "ajouter": 2867,
        "décisions": 2868,
        "correct": 2869,
        "illet": 2870,
        "somme": 2871,
        "perte": 2872,
        "retard": 2873,
        "créé": 2874,
        "policiers": 2875,
        "quartier": 2876,
        "communication": 2877,
        "autorité": 2878,
        "commune": 2879,
        "humaine": 2880,
        "bouffe": 2881,
        "exact": 2882,
        "assurer": 2883,
        "cop": 2884,
        "copine": 2885,
        "phé": 2886,
        "phénom": 2887,
        "phénomène": 2888,
        "direction": 2889,
        "voila": 2890,
        "pratiques": 2891,
        "11": 2892,
        "premières": 2893,
        "travailleurs": 2894,
        "législa": 2895,
        "législatives": 2896,
        "principal": 2897,
        "lang": 2898,
        "langage": 2899,
        "civil": 2900,
        "évolution": 2901,
        "prochain": 2902,
        "surpris": 2903,
        "complot": 2904,
        "signe": 2905,
        "mange": 2906,
        "génération": 2907,
        "race": 2908,
        "stu": 2909,
        "stupi": 2910,
        "stupide": 2911,
        "fonctionnement": 2912,
        "lr": 2913,
        "scienti": 2914,
        "scientifi": 2915,
        "scientifiques": 2916,
        "critiques": 2917,
        "maximum": 2918,
        "fausse": 2919,
        "profiter": 2920,
        "nationalité": 2921,
        "500": 2922,
        "prote": 2923,
        "protection": 2924,
        "spec": 2925,
        "russe": 2926,
        "différences": 2927,
        "partager": 2928,
        "preuves": 2929,
        "accent": 2930,
        "supéri": 2931,
        "supérieur": 2932,
        "nez": 2933,
        "images": 2934,
        "salariés": 2935,
        "collègues": 2936,
        "techniquement": 2937,
        "human": 2938,
        "humanité": 2939,
        "jugement": 2940,
        "décide": 2941,
        "publics": 2942,
        "méchant": 2943,
        "couil": 2944,
        "couilles": 2945,
        "gamins": 2946,
        "quitte": 2947,
        "intéressante": 2948,
        "citer": 2949,
        "marcher": 2950,
        "ump": 2951,
        "croit": 2952,
        "crime": 2953,
        "arabe": 2954,
        "concours": 2955,
        "passant": 2956,
        "excel": 2957,
        "excellent": 2958,
        "avancer": 2959,
        "soutenir": 2960,
        "vivent": 2961,
        "développer": 2962,
        "allais": 2963,
        "histoir": 2964,
        "histoires": 2965,
        "baisser": 2966,
        "mena": 2967,
        "menace": 2968,
        "carrière": 2969,
        "dossi": 2970,
        "dossier": 2971,
        "conclu": 2972,
        "conclusion": 2973,
        "doigt": 2974,
        "dérange": 2975,
        "conseils": 2976,
        "mour": 2977,
        "mourir": 2978,
        "lettre": 2979,
        "win": 2980,
        "window": 2981,
        "windows": 2982,
        "amé": 2983,
        "améli": 2984,
        "amélio": 2985,
        "améliorer": 2986,
        "degré": 2987,
        "achat": 2988,
        "mouais": 2989,
        "refu": 2990,
        "refuse": 2991,
        "poil": 2992,
        "ambi": 2993,
        "ambiance": 2994,
        "casser": 2995,
        "nazis": 2996,
        "reçu": 2997,
        "durant": 2998,
        "secondes": 2999,
        "pou": 3000,
        "pouti": 3001,
        "poutine": 3002,
        "tourne": 3003,
        "présenter": 3004,
        "précisé": 3005,
        "précisément": 3006,
        "adres": 3007,
        "adresse": 3008,
        "attaquer": 3009,
        "adminis": 3010,
        "administr": 3011,
        "administration": 3012,
        "bru": 3013,
        "bruit": 3014,
        "politiquement": 3015,
        "construction": 3016,
        "connaissent": 3017,
        "répond": 3018,
        "commer": 3019,
        "commerce": 3020,
        "bière": 3021,
        "centaines": 3022,
        "envoie": 3023,
        "couple": 3024,
        "habit": 3025,
        "habitants": 3026,
        "pourri": 3027,
        "noms": 3028,
        "probable": 3029,
        "biais": 3030,
        "jeter": 3031,
        "loc": 3032,
        "locaux": 3033,
        "etou": 3034,
        "fiscale": 3035,
        "rends": 3036,
        "tape": 3037,
        "voient": 3038,
        "downvote": 3039,
        "catég": 3040,
        "catégorie": 3041,
        "messa": 3042,
        "messages": 3043,
        "programmes": 3044,
        "grèce": 3045,
        "nulle": 3046,
        "lesquels": 3047,
        "récu": 3048,
        "récupé": 3049,
        "récupérer": 3050,
        "local": 3051,
        "foutu": 3052,
        "façons": 3053,
        "alternative": 3054,
        "supprimer": 3055,
        "quo": 3056,
        "quoti": 3057,
        "quotid": 3058,
        "quotidien": 3059,
        "cens": 3060,
        "censé": 3061,
        "limit": 3062,
        "limites": 3063,
        "correspon": 3064,
        "correspond": 3065,
        "préciser": 3066,
        "toucher": 3067,
        "midi": 3068,
        "voile": 3069,
        "yep": 3070,
        "virer": 3071,
        "vente": 3072,
        "gaffe": 3073,
        "considéré": 3074,
        "outil": 3075,
        "pay": 3076,
        "payés": 3077,
        "transports": 3078,
        "boire": 3079,
        "systé": 3080,
        "systématiquement": 3081,
        "charli": 3082,
        "charlie": 3083,
        "décider": 3084,
        "16": 3085,
        "chien": 3086,
        "angleterre": 3087,
        "rajouter": 3088,
        "nécessairement": 3089,
        "sol": 3090,
        "numéro": 3091,
        "1er": 3092,
        "gratuit": 3093,
        "bonjour": 3094,
        "outre": 3095,
        "proble": 3096,
        "probleme": 3097,
        "positif": 3098,
        "médiatique": 3099,
        "arrière": 3100,
        "international": 3101,
        "signi": 3102,
        "signifie": 3103,
        "saison": 3104,
        "tv": 3105,
        "choco": 3106,
        "chocola": 3107,
        "chocolat": 3108,
        "politi": 3109,
        "politic": 3110,
        "politiciens": 3111,
        "publiques": 3112,
        "nombreus": 3113,
        "nombreuses": 3114,
        "obligat": 3115,
        "obligatoire": 3116,
        "langues": 3117,
        "uns": 3118,
        "expliqué": 3119,
        "sentir": 3120,
        "techniques": 3121,
        "abus": 3122,
        "littér": 3123,
        "littéralement": 3124,
        "quanti": 3125,
        "quantité": 3126,
        "avantages": 3127,
        "habite": 3128,
        "textes": 3129,
        "spécialement": 3130,
        "mandat": 3131,
        "permettent": 3132,
        "breta": 3133,
        "bretagne": 3134,
        "personnelle": 3135,
        "appl": 3136,
        "application": 3137,
        "moche": 3138,
        "suivant": 3139,
        "surprise": 3140,
        "vague": 3141,
        "migr": 3142,
        "migrants": 3143,
        "attitu": 3144,
        "attitude": 3145,
        "perd": 3146,
        "maladi": 3147,
        "maladie": 3148,
        "condition": 3149,
        "math": 3150,
        "maths": 3151,
        "jai": 3152,
        "pouvoirs": 3153,
        "socialiste": 3154,
        "mail": 3155,
        "épis": 3156,
        "épisode": 3157,
        "individu": 3158,
        "best": 3159,
        "bestof": 3160,
        "ferme": 3161,
        "pétr": 3162,
        "pétrole": 3163,
        "radi": 3164,
        "radio": 3165,
        "doigts": 3166,
        "option": 3167,
        "produire": 3168,
        "serai": 3169,
        "donnent": 3170,
        "dix": 3171,
        "daes": 3172,
        "daesh": 3173,
        "proces": 3174,
        "processus": 3175,
        "drap": 3176,
        "drapeau": 3177,
        "forum": 3178,
        "gaz": 3179,
        "zones": 3180,
        "réforme": 3181,
        "salle": 3182,
        "univers": 3183,
        "dépenses": 3184,
        "2000": 3185,
        "institu": 3186,
        "institutions": 3187,
        "chemin": 3188,
        "tombé": 3189,
        "voisi": 3190,
        "voisins": 3191,
        "forcer": 3192,
        "financer": 3193,
        "anciens": 3194,
        "fonds": 3195,
        "annonce": 3196,
        "violent": 3197,
        "objet": 3198,
        "illégal": 3199,
        "citation": 3200,
        "canad": 3201,
        "canada": 3202,
        "corr": 3203,
        "corrup": 3204,
        "corruption": 3205,
        "communiste": 3206,
        "demandes": 3207,
        "collège": 3208,
        "terroriste": 3209,
        "étudiant": 3210,
        "conver": 3211,
        "conversa": 3212,
        "conversation": 3213,
        "auprès": 3214,
        "vic": 3215,
        "victoire": 3216,
        "françois": 3217,
        "fre": 3218,
        "free": 3219,
        "deja": 3220,
        "plainte": 3221,
        "totale": 3222,
        "étonnant": 3223,
        "mouvements": 3224,
        "critères": 3225,
        "popula": 3226,
        "populations": 3227,
        "1000": 3228,
        "venant": 3229,
        "oe": 3230,
        "oeil": 3231,
        "idiot": 3232,
        "connard": 3233,
        "réelle": 3234,
        "chaî": 3235,
        "chaîne": 3236,
        "pleins": 3237,
        "sortent": 3238,
        "religions": 3239,
        "cheveux": 3240,
        "smi": 3241,
        "smic": 3242,
        "bouche": 3243,
        "taxe": 3244,
        "tente": 3245,
        "dizaines": 3246,
        "marge": 3247,
        "parties": 3248,
        "pleine": 3249,
        "conséquence": 3250,
        "davantage": 3251,
        "moder": 3252,
        "moderne": 3253,
        "idem": 3254,
        "simil": 3255,
        "similaire": 3256,
        "militants": 3257,
        "battre": 3258,
        "vs": 3259,
        "plait": 3260,
        "espoir": 3261,
        "mur": 3262,
        "occuper": 3263,
        "lour": 3264,
        "lourd": 3265,
        "militaires": 3266,
        "trouvent": 3267,
        "croyais": 3268,
        "rar": 3269,
        "rares": 3270,
        "balance": 3271,
        "pages": 3272,
        "efforts": 3273,
        "parceque": 3274,
        "augmente": 3275,
        "blagues": 3276,
        "refuser": 3277,
        "kar": 3278,
        "karma": 3279,
        "intelli": 3280,
        "intelligent": 3281,
        "utilisateur": 3282,
        "inst": 3283,
        "installer": 3284,
        "estime": 3285,
        "secre": 3286,
        "secret": 3287,
        "absur": 3288,
        "absurde": 3289,
        "rigo": 3290,
        "rigolo": 3291,
        "2014": 3292,
        "news": 3293,
        "sacré": 3294,
        "intervent": 3295,
        "intervention": 3296,
        "aimes": 3297,
        "désor": 3298,
        "désormais": 3299,
        "quatre": 3300,
        "ouest": 3301,
        "perti": 3302,
        "pertinent": 3303,
        "planète": 3304,
        "paie": 3305,
        "université": 3306,
        "lieux": 3307,
        "culturel": 3308,
        "limité": 3309,
        "référendu": 3310,
        "référendum": 3311,
        "idéal": 3312,
        "évite": 3313,
        "complet": 3314,
        "frontières": 3315,
        "bases": 3316,
        "achète": 3317,
        "retourner": 3318,
        "calcul": 3319,
        "servent": 3320,
        "titres": 3321,
        "curieux": 3322,
        "réfu": 3323,
        "réfug": 3324,
        "réfugi": 3325,
        "réfugiés": 3326,
        "centrale": 3327,
        "marre": 3328,
        "précé": 3329,
        "précédent": 3330,
        "enqu": 3331,
        "enquête": 3332,
        "sauver": 3333,
        "stat": 3334,
        "statis": 3335,
        "statistiques": 3336,
        "roy": 3337,
        "royau": 3338,
        "royaume": 3339,
        "association": 3340,
        "tradu": 3341,
        "traduction": 3342,
        "haute": 3343,
        "calme": 3344,
        "approche": 3345,
        "financement": 3346,
        "excep": 3347,
        "exception": 3348,
        "méthodes": 3349,
        "bio": 3350,
        "aides": 3351,
        "froid": 3352,
        "faisaient": 3353,
        "compét": 3354,
        "compétences": 3355,
        "outils": 3356,
        "civi": 3357,
        "civile": 3358,
        "proposition": 3359,
        "stage": 3360,
        "cœ": 3361,
        "cœur": 3362,
        "limiter": 3363,
        "phras": 3364,
        "phrases": 3365,
        "situations": 3366,
        "interprét": 3367,
        "interprétation": 3368,
        "utilisateurs": 3369,
        "orange": 3370,
        "dun": 3371,
        "cite": 3372,
        "méch": 3373,
        "méchants": 3374,
        "finit": 3375,
        "connaiss": 3376,
        "connaissances": 3377,
        "taf": 3378,
        "profite": 3379,
        "fermer": 3380,
        "vivant": 3381,
        "not": 3382,
        "fonctionn": 3383,
        "fonctionnaires": 3384,
        "busi": 3385,
        "busines": 3386,
        "business": 3387,
        "profit": 3388,
        "systèmes": 3389,
        "pièce": 3390,
        "discri": 3391,
        "discrimination": 3392,
        "attaques": 3393,
        "nazi": 3394,
        "bouger": 3395,
        "zér": 3396,
        "zéro": 3397,
        "féministes": 3398,
        "apporter": 3399,
        "hésite": 3400,
        "lendemain": 3401,
        "tester": 3402,
        "travaux": 3403,
        "cen": 3404,
        "censure": 3405,
        "endroits": 3406,
        "fl": 3407,
        "flair": 3408,
        "cancer": 3409,
        "commission": 3410,
        "tiers": 3411,
        "patrons": 3412,
        "rê": 3413,
        "rêve": 3414,
        "richesse": 3415,
        "purement": 3416,
        "sécu": 3417,
        "semblent": 3418,
        "sole": 3419,
        "soleil": 3420,
        "balles": 3421,
        "ferais": 3422,
        "entretien": 3423,
        "caract": 3424,
        "caractère": 3425,
        "employé": 3426,
        "faveur": 3427,
        "origin": 3428,
        "original": 3429,
        "gosses": 3430,
        "éch": 3431,
        "échec": 3432,
        "propriété": 3433,
        "familles": 3434,
        "lyon": 3435,
        "moral": 3436,
        "erreurs": 3437,
        "dune": 3438,
        "tue": 3439,
        "sache": 3440,
        "avoc": 3441,
        "avocat": 3442,
        "mobi": 3443,
        "mobile": 3444,
        "fame": 3445,
        "fameux": 3446,
        "vieille": 3447,
        "racon": 3448,
        "raconte": 3449,
        "bord": 3450,
        "vala": 3451,
        "valable": 3452,
        "lutter": 3453,
        "wee": 3454,
        "week": 3455,
        "cacher": 3456,
        "apporte": 3457,
        "quelcon": 3458,
        "quelconque": 3459,
        "honne": 3460,
        "honneur": 3461,
        "foutent": 3462,
        "coupe": 3463,
        "tenté": 3464,
        "brav": 3465,
        "bravo": 3466,
        "accepte": 3467,
        "cinq": 3468,
        "domaines": 3469,
        "procé": 3470,
        "procédure": 3471,
        "incroy": 3472,
        "incroyable": 3473,
        "naturel": 3474,
        "jl": 3475,
        "jlm": 3476,
        "responsables": 3477,
        "pousse": 3478,
        "légitim": 3479,
        "légitimité": 3480,
        "évent": 3481,
        "éventu": 3482,
        "éventuellement": 3483,
        "appart": 3484,
        "envoyé": 3485,
        "communistes": 3486,
        "régions": 3487,
        "apprend": 3488,
        "boit": 3489,
        "boites": 3490,
        "modo": 3491,
        "vive": 3492,
        "tranqu": 3493,
        "tranquille": 3494,
        "voyage": 3495,
        "repas": 3496,
        "fo": 3497,
        "foot": 3498,
        "bourge": 3499,
        "bourgeois": 3500,
        "intellig": 3501,
        "intelligence": 3502,
        "rappel": 3503,
        "croi": 3504,
        "croient": 3505,
        "figar": 3506,
        "figaro": 3507,
        "score": 3508,
        "recul": 3509,
        "figu": 3510,
        "figure": 3511,
        "raisonna": 3512,
        "raisonnable": 3513,
        "cherché": 3514,
        "troi": 3515,
        "troisi": 3516,
        "troisième": 3517,
        "pouvais": 3518,
        "libéraux": 3519,
        "beur": 3520,
        "beurre": 3521,
        "cartes": 3522,
        "communisme": 3523,
        "quartiers": 3524,
        "reconnaître": 3525,
        "35": 3526,
        "aja": 3527,
        "joueurs": 3528,
        "club": 3529,
        "stade": 3530,
        "couper": 3531,
        "traités": 3532,
        "terrible": 3533,
        "banlieu": 3534,
        "banlieue": 3535,
        "cuis": 3536,
        "cuisine": 3537,
        "internationale": 3538,
        "invite": 3539,
        "bot": 3540,
        "regard": 3541,
        "crédi": 3542,
        "crédible": 3543,
        "découvrir": 3544,
        "barre": 3545,
        "interdi": 3546,
        "interdiction": 3547,
        "guer": 3548,
        "guerres": 3549,
        "délire": 3550,
        "300": 3551,
        "verre": 3552,
        "chans": 3553,
        "chanson": 3554,
        "nest": 3555,
        "luc": 3556,
        "connaît": 3557,
        "99": 3558,
        "intelle": 3559,
        "intellec": 3560,
        "intellectu": 3561,
        "intellectuelle": 3562,
        "personnages": 3563,
        "démarche": 3564,
        "médec": 3565,
        "médecins": 3566,
        "respecte": 3567,
        "neu": 3568,
        "neutre": 3569,
        "universe": 3570,
        "universel": 3571,
        "maintenir": 3572,
        "pur": 3573,
        "pars": 3574,
        "puissent": 3575,
        "compagni": 3576,
        "compagnie": 3577,
        "clavier": 3578,
        "biens": 3579,
        "techno": 3580,
        "technologie": 3581,
        "écris": 3582,
        "comparé": 3583,
        "proposé": 3584,
        "investir": 3585,
        "débattre": 3586,
        "connards": 3587,
        "fromage": 3588,
        "résumé": 3589,
        "minist": 3590,
        "ministère": 3591,
        "incapable": 3592,
        "syn": 3593,
        "syndic": 3594,
        "syndicats": 3595,
        "compro": 3596,
        "compromis": 3597,
        "possibles": 3598,
        "blanche": 3599,
        "suffisant": 3600,
        "insulter": 3601,
        "déçu": 3602,
        "mas": 3603,
        "master": 3604,
        "montré": 3605,
        "fle": 3606,
        "flemme": 3607,
        "trompe": 3608,
        "course": 3609,
        "opposé": 3610,
        "recherches": 3611,
        "principes": 3612,
        "chambre": 3613,
        "reproche": 3614,
        "partici": 3615,
        "participer": 3616,
        "néan": 3617,
        "néanmoins": 3618,
        "discussions": 3619,
        "propositions": 3620,
        "belgique": 3621,
        "23": 3622,
        "diri": 3623,
        "dirige": 3624,
        "dirigeants": 3625,
        "attendais": 3626,
        "subre": 3627,
        "subreddit": 3628,
        "nais": 3629,
        "naissance": 3630,
        "besoi": 3631,
        "besoins": 3632,
        "frère": 3633,
        "violences": 3634,
        "pauvreté": 3635,
        "comportements": 3636,
        "coupa": 3637,
        "coupable": 3638,
        "ajoute": 3639,
        "rat": 3640,
        "raté": 3641,
        "stri": 3642,
        "strictement": 3643,
        "arrivée": 3644,
        "ose": 3645,
        "précision": 3646,
        "ingéni": 3647,
        "ingénieur": 3648,
        "suit": 3649,
        "fun": 3650,
        "tenu": 3651,
        "nier": 3652,
        "apple": 3653,
        "égli": 3654,
        "église": 3655,
        "détest": 3656,
        "déteste": 3657,
        "travaillent": 3658,
        "rapports": 3659,
        "bar": 3660,
        "ennemi": 3661,
        "gaulle": 3662,
        "espé": 3663,
        "espérer": 3664,
        "décla": 3665,
        "déclaration": 3666,
        "xd": 3667,
        "igno": 3668,
        "ignorer": 3669,
        "agré": 3670,
        "agréable": 3671,
        "accident": 3672,
        "roi": 3673,
        "élect": 3674,
        "élector": 3675,
        "électorat": 3676,
        "étrange": 3677,
        "découvert": 3678,
        "inégalité": 3679,
        "inégalités": 3680,
        "mark": 3681,
        "market": 3682,
        "marketin": 3683,
        "marketing": 3684,
        "wi": 3685,
        "wik": 3686,
        "wiki": 3687,
        "wikipe": 3688,
        "wikipedi": 3689,
        "wikipedia": 3690,
        "ciné": 3691,
        "cinéma": 3692,
        "jup": 3693,
        "juppé": 3694,
        "blog": 3695,
        "italie": 3696,
        "membre": 3697,
        "employeur": 3698,
        "ouverte": 3699,
        "stats": 3700,
        "canard": 3701,
        "facteur": 3702,
        "défend": 3703,
        "insultes": 3704,
        "décen": 3705,
        "décenni": 3706,
        "décennies": 3707,
        "refaire": 3708,
        "principale": 3709,
        "gay": 3710,
        "volontairement": 3711,
        "attentat": 3712,
        "mars": 3713,
        "idéologique": 3714,
        "trou": 3715,
        "justifie": 3716,
        "prétexte": 3717,
        "17": 3718,
        "hop": 3719,
        "fri": 3720,
        "fric": 3721,
        "cible": 3722,
        "pure": 3723,
        "sexu": 3724,
        "sexuelle": 3725,
        "juges": 3726,
        "vérit": 3727,
        "véritable": 3728,
        "profil": 3729,
        "excus": 3730,
        "excuses": 3731,
        "struc": 3732,
        "structure": 3733,
        "directe": 3734,
        "acteurs": 3735,
        "choque": 3736,
        "expert": 3737,
        "lait": 3738,
        "construit": 3739,
        "quitter": 3740,
        "charges": 3741,
        "fren": 3742,
        "french": 3743,
        "réduit": 3744,
        "logiciel": 3745,
        "dor": 3746,
        "dormi": 3747,
        "dormir": 3748,
        "ahah": 3749,
        "dipl": 3750,
        "diplô": 3751,
        "diplôme": 3752,
        "pib": 3753,
        "potenti": 3754,
        "potentiellement": 3755,
        "néga": 3756,
        "négatif": 3757,
        "coran": 3758,
        "45": 3759,
        "micr": 3760,
        "micro": 3761,
        "judi": 3762,
        "judici": 3763,
        "judiciaire": 3764,
        "voisin": 3765,
        "voulaient": 3766,
        "soutiens": 3767,
        "modèles": 3768,
        "comprennent": 3769,
        "parisien": 3770,
        "lin": 3771,
        "linux": 3772,
        "places": 3773,
        "prétendre": 3774,
        "cond": 3775,
        "condam": 3776,
        "condamné": 3777,
        "ouvriers": 3778,
        "intervie": 3779,
        "interview": 3780,
        "activités": 3781,
        "diffi": 3782,
        "difficul": 3783,
        "difficulté": 3784,
        "march": 3785,
        "marchés": 3786,
        "voudr": 3787,
        "voudrais": 3788,
        "centrales": 3789,
        "remarqué": 3790,
        "dégueu": 3791,
        "dégueula": 3792,
        "dégueulasse": 3793,
        "bleu": 3794,
        "sn": 3795,
        "sncf": 3796,
        "scand": 3797,
        "scandale": 3798,
        "prouve": 3799,
        "malin": 3800,
        "potentiel": 3801,
        "priorité": 3802,
        "phil": 3803,
        "philos": 3804,
        "philosop": 3805,
        "philosoph": 3806,
        "philosophie": 3807,
        "cache": 3808,
        "dro": 3809,
        "drogue": 3810,
        "reconnu": 3811,
        "souvenirs": 3812,
        "empire": 3813,
        "féminisme": 3814,
        "dist": 3815,
        "distance": 3816,
        "arrêt": 3817,
        "isra": 3818,
        "israël": 3819,
        "mél": 3820,
        "mélange": 3821,
        "parlementaire": 3822,
        "accords": 3823,
        "crédit": 3824,
        "espagne": 3825,
        "typ": 3826,
        "typique": 3827,
        "typiquement": 3828,
        "moments": 3829,
        "plaî": 3830,
        "plaît": 3831,
        "upvote": 3832,
        "matér": 3833,
        "matériel": 3834,
        "lesquelles": 3835,
        "revoir": 3836,
        "lisant": 3837,
        "villa": 3838,
        "village": 3839,
        "abs": 3840,
        "abstention": 3841,
        "avouer": 3842,
        "trouvais": 3843,
        "monte": 3844,
        "gras": 3845,
        "chirac": 3846,
        "claire": 3847,
        "causes": 3848,
        "dents": 3849,
        "rece": 3850,
        "recevoir": 3851,
        "noter": 3852,
        "tire": 3853,
        "with": 3854,
        "magni": 3855,
        "magnifique": 3856,
        "seras": 3857,
        "entrer": 3858,
        "libérale": 3859,
        "deviennent": 3860,
        "paro": 3861,
        "paroles": 3862,
        "licence": 3863,
        "opér": 3864,
        "opération": 3865,
        "bouff": 3866,
        "bouffer": 3867,
        "tours": 3868,
        "mépris": 3869,
        "associations": 3870,
        "inflation": 3871,
        "sélectionné": 3872,
        "lumi": 3873,
        "lumière": 3874,
        "voule": 3875,
        "voulez": 3876,
        "ancienne": 3877,
        "prêts": 3878,
        "har": 3879,
        "harc": 3880,
        "harcè": 3881,
        "harcèlement": 3882,
        "ouaip": 3883,
        "locale": 3884,
        "rassure": 3885,
        "sourire": 3886,
        "pubs": 3887,
        "ouvre": 3888,
        "amazon": 3889,
        "major": 3890,
        "majorit": 3891,
        "majoritairement": 3892,
        "automatiquement": 3893,
        "semblait": 3894,
        "norme": 3895,
        "champ": 3896,
        "connaitre": 3897,
        "retirer": 3898,
        "tenta": 3899,
        "tentative": 3900,
        "consens": 3901,
        "consensus": 3902,
        "immédia": 3903,
        "immédiatement": 3904,
        "spécifique": 3905,
        "amér": 3906,
        "amérique": 3907,
        "voler": 3908,
        "atteint": 3909,
        "néo": 3910,
        "are": 3911,
        "rentable": 3912,
        "mauvaises": 3913,
        "gouvernements": 3914,
        "peup": 3915,
        "peuples": 3916,
        "portable": 3917,
        "facteurs": 3918,
        "repro": 3919,
        "reprocher": 3920,
        "malade": 3921,
        "jusque": 3922,
        "appelé": 3923,
        "plat": 3924,
        "hit": 3925,
        "hitler": 3926,
        "simples": 3927,
        "hypothèse": 3928,
        "ensei": 3929,
        "enseigne": 3930,
        "enseignement": 3931,
        "capitaliste": 3932,
        "minute": 3933,
        "auteurs": 3934,
        "savait": 3935,
        "demand": 3936,
        "demandent": 3937,
        "my": 3938,
        "ironie": 3939,
        "racont": 3940,
        "raconter": 3941,
        "prenant": 3942,
        "frau": 3943,
        "fraude": 3944,
        "obligation": 3945,
        "chré": 3946,
        "chrétiens": 3947,
        "japonais": 3948,
        "camps": 3949,
        "absolue": 3950,
        "basé": 3951,
        "européennes": 3952,
        "moteur": 3953,
        "conscient": 3954,
        "pourront": 3955,
        "tradi": 3956,
        "tradition": 3957,
        "atteindre": 3958,
        "républicains": 3959,
        "importants": 3960,
        "faim": 3961,
        "imm": 3962,
        "immense": 3963,
        "cherch": 3964,
        "cherchent": 3965,
        "cadres": 3966,
        "cat": 3967,
        "catho": 3968,
        "catholi": 3969,
        "catholique": 3970,
        "acceptable": 3971,
        "exer": 3972,
        "exerci": 3973,
        "exercice": 3974,
        "patri": 3975,
        "patrimoi": 3976,
        "patrimoine": 3977,
        "loyer": 3978,
        "normale": 3979,
        "otan": 3980,
        "misère": 3981,
        "détru": 3982,
        "détruire": 3983,
        "pol": 3984,
        "pollution": 3985,
        "compare": 3986,
        "récent": 3987,
        "propriét": 3988,
        "propriétaire": 3989,
        "carica": 3990,
        "caricature": 3991,
        "evi": 3992,
        "evidemment": 3993,
        "semblant": 3994,
        "ani": 3995,
        "animal": 3996,
        "exprès": 3997,
        "rense": 3998,
        "renseig": 3999,
        "renseigner": 4000,
        "fassent": 4001,
        "parall": 4002,
        "parallè": 4003,
        "parallèle": 4004,
        "resté": 4005,
        "montant": 4006,
        "interne": 4007,
        "québ": 4008,
        "québec": 4009,
        "2013": 4010,
        "notes": 4011,
        "bonheur": 4012,
        "passes": 4013,
        "marse": 4014,
        "marseille": 4015,
        "clin": 4016,
        "clinton": 4017,
        "pires": 4018,
        "émissions": 4019,
        "séries": 4020,
        "cohér": 4021,
        "cohérent": 4022,
        "dise": 4023,
        "exister": 4024,
        "fête": 4025,
        "vend": 4026,
        "régler": 4027,
        "caca": 4028,
        "sinc": 4029,
        "sincèrement": 4030,
        "ry": 4031,
        "ryth": 4032,
        "rythme": 4033,
        "papiers": 4034,
        "exploit": 4035,
        "exploitation": 4036,
        "lettres": 4037,
        "économies": 4038,
        "brex": 4039,
        "brexit": 4040,
        "parisiens": 4041,
        "résou": 4042,
        "résoudre": 4043,
        "chois": 4044,
        "choisis": 4045,
        "bilan": 4046,
        "repris": 4047,
        "adapter": 4048,
        "voici": 4049,
        "étonne": 4050,
        "évid": 4051,
        "évidence": 4052,
        "tax": 4053,
        "taxes": 4054,
        "feront": 4055,
        "conseiller": 4056,
        "intégration": 4057,
        "représenter": 4058,
        "cult": 4059,
        "cultures": 4060,
        "indépend": 4061,
        "indépendance": 4062,
        "réactions": 4063,
        "sep": 4064,
        "septe": 4065,
        "septembre": 4066,
        "portée": 4067,
        "tests": 4068,
        "arrives": 4069,
        "retrouvé": 4070,
        "réussir": 4071,
        "horrible": 4072,
        "coller": 4073,
        "extér": 4074,
        "extérieur": 4075,
        "culturelle": 4076,
        "remarquer": 4077,
        "prim": 4078,
        "primaires": 4079,
        "debout": 4080,
        "gare": 4081,
        "organiser": 4082,
        "jouent": 4083,
        "niveaux": 4084,
        "pourras": 4085,
        "usi": 4086,
        "usine": 4087,
        "mien": 4088,
        "24": 4089,
        "by": 4090,
        "étrangère": 4091,
        "verras": 4092,
        "balle": 4093,
        "gosse": 4094,
        "naturellement": 4095,
        "contrô": 4096,
        "contrôler": 4097,
        "chute": 4098,
        "wo": 4099,
        "wow": 4100,
        "vendu": 4101,
        "regardes": 4102,
        "forcement": 4103,
        "oba": 4104,
        "obama": 4105,
        "format": 4106,
        "match": 4107,
        "file": 4108,
        "tué": 4109,
        "four": 4110,
        "fourni": 4111,
        "fournir": 4112,
        "nuance": 4113,
        "piè": 4114,
        "pièces": 4115,
        "bite": 4116,
        "agri": 4117,
        "agriculture": 4118,
        "thème": 4119,
        "open": 4120,
        "liés": 4121,
        "chère": 4122,
        "frontière": 4123,
        "tand": 4124,
        "tandis": 4125,
        "occident": 4126,
        "climat": 4127,
        "irak": 4128,
        "assumer": 4129,
        "tromper": 4130,
        "arrivera": 4131,
        "couleurs": 4132,
        "comparable": 4133,
        "serv": 4134,
        "serveur": 4135,
        "touristes": 4136,
        "actualité": 4137,
        "sil": 4138,
        "silence": 4139,
        "fal": 4140,
        "fallu": 4141,
        "vendredi": 4142,
        "crimes": 4143,
        "former": 4144,
        "dés": 4145,
        "désaccord": 4146,
        "urss": 4147,
        "noël": 4148,
        "parcours": 4149,
        "utilité": 4150,
        "bouquins": 4151,
        "admettre": 4152,
        "libres": 4153,
        "finan": 4154,
        "financi": 4155,
        "financier": 4156,
        "coûts": 4157,
        "jan": 4158,
        "janvier": 4159,
        "affir": 4160,
        "affirmer": 4161,
        "blac": 4162,
        "black": 4163,
        "équil": 4164,
        "équili": 4165,
        "équilibre": 4166,
        "jeunesse": 4167,
        "rép": 4168,
        "répète": 4169,
        "couverture": 4170,
        "gentils": 4171,
        "scén": 4172,
        "scénar": 4173,
        "scénari": 4174,
        "scénario": 4175,
        "tur": 4176,
        "turqui": 4177,
        "turquie": 4178,
        "prime": 4179,
        "appréci": 4180,
        "apprécie": 4181,
        "offri": 4182,
        "offrir": 4183,
        "avions": 4184,
        "occurrence": 4185,
        "hausse": 4186,
        "recours": 4187,
        "beaux": 4188,
        "portes": 4189,
        "écologie": 4190,
        "scol": 4191,
        "scolaire": 4192,
        "contrats": 4193,
        "stand": 4194,
        "standard": 4195,
        "rendent": 4196,
        "dizaine": 4197,
        "relè": 4198,
        "relève": 4199,
        "cdi": 4200,
        "normes": 4201,
        "indique": 4202,
        "retourne": 4203,
        "2007": 4204,
        "cann": 4205,
        "cannab": 4206,
        "cannabis": 4207,
        "fiche": 4208,
        "collègue": 4209,
        "corée": 4210,
        "tels": 4211,
        "mentalité": 4212,
        "orient": 4213,
        "climatique": 4214,
        "mentionné": 4215,
        "mono": 4216,
        "monopo": 4217,
        "monopole": 4218,
        "cais": 4219,
        "caisse": 4220,
        "concr": 4221,
        "concrètement": 4222,
        "salarié": 4223,
        "bonus": 4224,
        "this": 4225,
        "garanti": 4226,
        "garantie": 4227,
        "balancer": 4228,
        "rajoute": 4229,
        "éta": 4230,
        "étape": 4231,
        "2008": 4232,
        "chasse": 4233,
        "meilleures": 4234,
        "générations": 4235,
        "représentent": 4236,
        "papa": 4237,
        "populaires": 4238,
        "mille": 4239,
        "rsa": 4240,
        "difficilement": 4241,
        "nécessité": 4242,
        "million": 4243,
        "éth": 4244,
        "éthique": 4245,
        "officiel": 4246,
        "arrange": 4247,
        "réalis": 4248,
        "réaliser": 4249,
        "accorde": 4250,
        "examen": 4251,
        "trib": 4252,
        "tribun": 4253,
        "tribunal": 4254,
        "symb": 4255,
        "symbole": 4256,
        "soutient": 4257,
        "pourris": 4258,
        "dicta": 4259,
        "dictature": 4260,
        "horre": 4261,
        "horreur": 4262,
        "placer": 4263,
        "dépasse": 4264,
        "cot": 4265,
        "cotis": 4266,
        "cotisations": 4267,
        "modé": 4268,
        "modération": 4269,
        "répéter": 4270,
        "vert": 4271,
        "donnée": 4272,
        "personnalité": 4273,
        "aise": 4274,
        "répu": 4275,
        "réputa": 4276,
        "réputation": 4277,
        "bébé": 4278,
        "chôme": 4279,
        "chômeurs": 4280,
        "mairie": 4281,
        "machines": 4282,
        "définir": 4283,
        "intéressé": 4284,
        "bossé": 4285,
        "boîtes": 4286,
        "accepté": 4287,
        "préparer": 4288,
        "surface": 4289,
        "médeci": 4290,
        "médecine": 4291,
        "poche": 4292,
        "pouvaient": 4293,
        "alg": 4294,
        "algérie": 4295,
        "ortho": 4296,
        "orthog": 4297,
        "orthograp": 4298,
        "orthographe": 4299,
        "confort": 4300,
        "noire": 4301,
        "automatique": 4302,
        "ironique": 4303,
        "léger": 4304,
        "propor": 4305,
        "proportion": 4306,
        "pointe": 4307,
        "intéressants": 4308,
        "dispon": 4309,
        "disponi": 4310,
        "disponible": 4311,
        "faibles": 4312,
        "travaillé": 4313,
        "montrent": 4314,
        "consiste": 4315,
        "ouf": 4316,
        "réformes": 4317,
        "réus": 4318,
        "réussite": 4319,
        "disti": 4320,
        "distin": 4321,
        "distinction": 4322,
        "corri": 4323,
        "corriger": 4324,
        "extrêmes": 4325,
        "côtés": 4326,
        "siècles": 4327,
        "existait": 4328,
        "visage": 4329,
        "din": 4330,
        "dingue": 4331,
        "génie": 4332,
        "préfè": 4333,
        "préfèrent": 4334,
        "cv": 4335,
        "impose": 4336,
        "from": 4337,
        "hi": 4338,
        "hiver": 4339,
        "écar": 4340,
        "écart": 4341,
        "changements": 4342,
        "nouvel": 4343,
        "rigueur": 4344,
        "bol": 4345,
        "maman": 4346,
        "ordin": 4347,
        "ordina": 4348,
        "ordinateur": 4349,
        "sel": 4350,
        "taff": 4351,
        "effi": 4352,
        "efficac": 4353,
        "efficacité": 4354,
        "plaque": 4355,
        "socialistes": 4356,
        "bénéfice": 4357,
        "électr": 4358,
        "électrique": 4359,
        "débiles": 4360,
        "seules": 4361,
        "pouve": 4362,
        "pouvez": 4363,
        "voca": 4364,
        "vocab": 4365,
        "vocabul": 4366,
        "vocabulaire": 4367,
        "voyons": 4368,
        "chercheurs": 4369,
        "intéresser": 4370,
        "confu": 4371,
        "confusion": 4372,
        "ressenti": 4373,
        "privées": 4374,
        "tva": 4375,
        "adapté": 4376,
        "libertés": 4377,
        "alb": 4378,
        "album": 4379,
        "hypocris": 4380,
        "hypocrisie": 4381,
        "moti": 4382,
        "motiva": 4383,
        "motivation": 4384,
        "bataille": 4385,
        "have": 4386,
        "changent": 4387,
        "plans": 4388,
        "donnes": 4389,
        "toutefois": 4390,
        "champs": 4391,
        "fixe": 4392,
        "remb": 4393,
        "rembour": 4394,
        "rembourser": 4395,
        "magique": 4396,
        "ub": 4397,
        "uber": 4398,
        "chers": 4399,
        "essent": 4400,
        "essentiel": 4401,
        "fonctionner": 4402,
        "londres": 4403,
        "refusé": 4404,
        "jur": 4405,
        "juridi": 4406,
        "juridique": 4407,
        "fautes": 4408,
        "provin": 4409,
        "province": 4410,
        "objectifs": 4411,
        "socialisme": 4412,
        "nettement": 4413,
        "rencontre": 4414,
        "minorités": 4415,
        "occupe": 4416,
        "sarcas": 4417,
        "sarcasme": 4418,
        "remonter": 4419,
        "réduction": 4420,
        "ferai": 4421,
        "rencontr": 4422,
        "rencontré": 4423,
        "sentent": 4424,
        "argumentation": 4425,
        "léga": 4426,
        "légale": 4427,
        "touché": 4428,
        "représentation": 4429,
        "dénon": 4430,
        "dénoncer": 4431,
        "religieu": 4432,
        "religieuse": 4433,
        "belles": 4434,
        "case": 4435,
        "alli": 4436,
        "alliance": 4437,
        "classiques": 4438,
        "pleu": 4439,
        "pleurer": 4440,
        "convi": 4441,
        "conviction": 4442,
        "convictions": 4443,
        "complète": 4444,
        "marie": 4445,
        "downvotes": 4446,
        "couche": 4447,
        "nég": 4448,
        "négli": 4449,
        "néglige": 4450,
        "négligeable": 4451,
        "vraies": 4452,
        "valide": 4453,
        "laï": 4454,
        "laïcité": 4455,
        "bc": 4456,
        "bcp": 4457,
        "acqu": 4458,
        "acquis": 4459,
        "doutes": 4460,
        "copain": 4461,
        "réaliste": 4462,
        "essence": 4463,
        "reconnais": 4464,
        "intég": 4465,
        "intégrer": 4466,
        "communes": 4467,
        "mani": 4468,
        "manipu": 4469,
        "manipulation": 4470,
        "trajet": 4471,
        "nour": 4472,
        "nourri": 4473,
        "nourriture": 4474,
        "métiers": 4475,
        "colère": 4476,
        "visible": 4477,
        "confon": 4478,
        "confondre": 4479,
        "élire": 4480,
        "mentir": 4481,
        "allant": 4482,
        "gratuite": 4483,
        "supporter": 4484,
        "para": 4485,
        "paradis": 4486,
        "suici": 4487,
        "suicide": 4488,
        "bay": 4489,
        "bayrou": 4490,
        "voudrait": 4491,
        "changera": 4492,
        "représenta": 4493,
        "représentatif": 4494,
        "mondial": 4495,
        "cerc": 4496,
        "cercle": 4497,
        "adu": 4498,
        "adul": 4499,
        "adulte": 4500,
        "melenchon": 4501,
        "tabac": 4502,
        "cir": 4503,
        "circu": 4504,
        "circulation": 4505,
        "déconner": 4506,
        "bloc": 4507,
        "sauce": 4508,
        "sexisme": 4509,
        "bloqué": 4510,
        "policier": 4511,
        "bloque": 4512,
        "bloquer": 4513,
        "stable": 4514,
        "fasc": 4515,
        "fasciste": 4516,
        "réagir": 4517,
        "offici": 4518,
        "officielle": 4519,
        "grè": 4520,
        "grève": 4521,
        "favor": 4522,
        "favorable": 4523,
        "was": 4524,
        "campag": 4525,
        "campagnes": 4526,
        "amende": 4527,
        "aspects": 4528,
        "150": 4529,
        "remise": 4530,
        "choc": 4531,
        "juillet": 4532,
        "transi": 4533,
        "transition": 4534,
        "dessin": 4535,
        "islamis": 4536,
        "islamistes": 4537,
        "légalement": 4538,
        "sen": 4539,
        "sensible": 4540,
        "ramener": 4541,
        "perds": 4542,
        "soumis": 4543,
        "venait": 4544,
        "95": 4545,
        "rej": 4546,
        "rejoin": 4547,
        "rejoindre": 4548,
        "fiscal": 4549,
        "reviens": 4550,
        "bizar": 4551,
        "bizarrement": 4552,
        "conflits": 4553,
        "vache": 4554,
        "repor": 4555,
        "reporta": 4556,
        "reportage": 4557,
        "musulmane": 4558,
        "alternatives": 4559,
        "particuliers": 4560,
        "dose": 4561,
        "directeur": 4562,
        "parc": 4563,
        "rem": 4564,
        "rempl": 4565,
        "remplir": 4566,
        "problé": 4567,
        "problématique": 4568,
        "mettant": 4569,
        "21": 4570,
        "perman": 4571,
        "permanence": 4572,
        "culte": 4573,
        "manifest": 4574,
        "manifestants": 4575,
        "placé": 4576,
        "connus": 4577,
        "milieux": 4578,
        "soli": 4579,
        "solide": 4580,
        "ennemis": 4581,
        "stp": 4582,
        "arabie": 4583,
        "oblige": 4584,
        "agres": 4585,
        "agression": 4586,
        "références": 4587,
        "invent": 4588,
        "inventé": 4589,
        "lamb": 4590,
        "lambda": 4591,
        "convient": 4592,
        "anglo": 4593,
        "importantes": 4594,
        "aidé": 4595,
        "andr": 4596,
        "android": 4597,
        "offi": 4598,
        "office": 4599,
        "gratui": 4600,
        "gratuitement": 4601,
        "hypocri": 4602,
        "hypocrite": 4603,
        "tiré": 4604,
        "sig": 4605,
        "signé": 4606,
        "spécial": 4607,
        "représentants": 4608,
        "passera": 4609,
        "théori": 4610,
        "théories": 4611,
        "commencent": 4612,
        "syste": 4613,
        "systeme": 4614,
        "acces": 4615,
        "accessible": 4616,
        "mens": 4617,
        "menson": 4618,
        "mensonge": 4619,
        "live": 4620,
        "testé": 4621,
        "marrer": 4622,
        "privés": 4623,
        "dame": 4624,
        "contente": 4625,
        "saut": 4626,
        "sauter": 4627,
        "2002": 4628,
        "électri": 4629,
        "électricité": 4630,
        "fiable": 4631,
        "tiennent": 4632,
        "capables": 4633,
        "montée": 4634,
        "refusent": 4635,
        "75": 4636,
        "billet": 4637,
        "productif": 4638,
        "fermé": 4639,
        "constater": 4640,
        "utilisés": 4641,
        "passée": 4642,
        "salut": 4643,
        "bénéfices": 4644,
        "volontaire": 4645,
        "pratiquement": 4646,
        "pcf": 4647,
        "élit": 4648,
        "élites": 4649,
        "féministe": 4650,
        "modos": 4651,
        "perspec": 4652,
        "perspective": 4653,
        "délit": 4654,
        "pois": 4655,
        "poisson": 4656,
        "breton": 4657,
        "experts": 4658,
        "19": 4659,
        "vise": 4660,
        "domination": 4661,
        "passait": 4662,
        "permettant": 4663,
        "élève": 4664,
        "maî": 4665,
        "maître": 4666,
        "condu": 4667,
        "conduire": 4668,
        "support": 4669,
        "présenté": 4670,
        "rh": 4671,
        "rhét": 4672,
        "rhétorique": 4673,
        "numérique": 4674,
        "poussé": 4675,
        "décrit": 4676,
        "miche": 4677,
        "michel": 4678,
        "combattre": 4679,
        "prénom": 4680,
        "spect": 4681,
        "spectac": 4682,
        "spectacle": 4683,
        "annoncé": 4684,
        "longueur": 4685,
        "confirmer": 4686,
        "nécessaires": 4687,
        "portent": 4688,
        "surve": 4689,
        "surveil": 4690,
        "surveillance": 4691,
        "repose": 4692,
        "civilis": 4693,
        "civilisation": 4694,
        "résume": 4695,
        "jolie": 4696,
        "bourré": 4697,
        "appareil": 4698,
        "nop": 4699,
        "nope": 4700,
        "héros": 4701,
        "diversité": 4702
    }
}
